{
  "version": "1.0",
  "truncation": null,
  "padding": null,
  "added_tokens": [
    {
      "id": 0,
      "content": "<|pad|>",
      "single_word": false,
      "lstrip": false,
      "rstrip": false,
      "normalized": false,
      "special": true
    },
    {
      "id": 1,
      "content": "<|bos|>",
      "single_word": false,
      "lstrip": false,
      "rstrip": false,
      "normalized": false,
      "special": true
    },
    {
      "id": 2,
      "content": "<|eos|>",
      "single_word": false,
      "lstrip": false,
      "rstrip": false,
      "normalized": false,
      "special": true
    },
    {
      "id": 3,
      "content": "<|unk|>",
      "single_word": false,
      "lstrip": false,
      "rstrip": false,
      "normalized": false,
      "special": true
    },
    {
      "id": 4,
      "content": "<|task|>",
      "single_word": false,
      "lstrip": false,
      "rstrip": false,
      "normalized": false,
      "special": true
    },
    {
      "id": 5,
      "content": "<|code|>",
      "single_word": false,
      "lstrip": false,
      "rstrip": false,
      "normalized": false,
      "special": true
    },
    {
      "id": 6,
      "content": "<|explanation|>",
      "single_word": false,
      "lstrip": false,
      "rstrip": false,
      "normalized": false,
      "special": true
    }
  ],
  "normalizer": {
    "type": "Sequence",
    "normalizers": []
  },
  "pre_tokenizer": {
    "type": "ByteLevel",
    "add_prefix_space": false,
    "trim_offsets": true,
    "use_regex": false
  },
  "post_processor": null,
  "decoder": {
    "type": "ByteLevel",
    "add_prefix_space": true,
    "trim_offsets": true,
    "use_regex": true
  },
  "model": {
    "type": "BPE",
    "dropout": null,
    "unk_token": "<|unk|>",
    "continuing_subword_prefix": null,
    "end_of_word_suffix": null,
    "fuse_unk": false,
    "byte_fallback": true,
    "ignore_merges": false,
    "vocab": {
      "<|pad|>": 0,
      "<|bos|>": 1,
      "<|eos|>": 2,
      "<|unk|>": 3,
      "<|task|>": 4,
      "<|code|>": 5,
      "<|explanation|>": 6,
      "!": 7,
      "\"": 8,
      "#": 9,
      "$": 10,
      "%": 11,
      "&": 12,
      "'": 13,
      "(": 14,
      ")": 15,
      "*": 16,
      "+": 17,
      ",": 18,
      "-": 19,
      ".": 20,
      "/": 21,
      "0": 22,
      "1": 23,
      "2": 24,
      "3": 25,
      "4": 26,
      "5": 27,
      "6": 28,
      "7": 29,
      "8": 30,
      "9": 31,
      ":": 32,
      ";": 33,
      "<": 34,
      "=": 35,
      ">": 36,
      "?": 37,
      "@": 38,
      "A": 39,
      "B": 40,
      "C": 41,
      "D": 42,
      "E": 43,
      "F": 44,
      "G": 45,
      "H": 46,
      "I": 47,
      "J": 48,
      "K": 49,
      "L": 50,
      "M": 51,
      "N": 52,
      "O": 53,
      "P": 54,
      "Q": 55,
      "R": 56,
      "S": 57,
      "T": 58,
      "U": 59,
      "V": 60,
      "W": 61,
      "X": 62,
      "Y": 63,
      "Z": 64,
      "[": 65,
      "\\": 66,
      "]": 67,
      "^": 68,
      "_": 69,
      "`": 70,
      "a": 71,
      "b": 72,
      "c": 73,
      "d": 74,
      "e": 75,
      "f": 76,
      "g": 77,
      "h": 78,
      "i": 79,
      "j": 80,
      "k": 81,
      "l": 82,
      "m": 83,
      "n": 84,
      "o": 85,
      "p": 86,
      "q": 87,
      "r": 88,
      "s": 89,
      "t": 90,
      "u": 91,
      "v": 92,
      "w": 93,
      "x": 94,
      "y": 95,
      "z": 96,
      "{": 97,
      "|": 98,
      "}": 99,
      "~": 100,
      "¡": 101,
      "¢": 102,
      "£": 103,
      "¤": 104,
      "¥": 105,
      "¦": 106,
      "§": 107,
      "¨": 108,
      "©": 109,
      "ª": 110,
      "«": 111,
      "¬": 112,
      "®": 113,
      "¯": 114,
      "°": 115,
      "±": 116,
      "²": 117,
      "³": 118,
      "´": 119,
      "µ": 120,
      "¶": 121,
      "·": 122,
      "¸": 123,
      "¹": 124,
      "º": 125,
      "»": 126,
      "¼": 127,
      "½": 128,
      "¾": 129,
      "¿": 130,
      "À": 131,
      "Á": 132,
      "Â": 133,
      "Ã": 134,
      "Ä": 135,
      "Å": 136,
      "Æ": 137,
      "Ç": 138,
      "È": 139,
      "É": 140,
      "Ê": 141,
      "Ë": 142,
      "Ì": 143,
      "Í": 144,
      "Î": 145,
      "Ï": 146,
      "Ð": 147,
      "Ñ": 148,
      "Ò": 149,
      "Ó": 150,
      "Ô": 151,
      "Õ": 152,
      "Ö": 153,
      "×": 154,
      "Ø": 155,
      "Ù": 156,
      "Ú": 157,
      "Û": 158,
      "Ü": 159,
      "Ý": 160,
      "Þ": 161,
      "ß": 162,
      "à": 163,
      "á": 164,
      "â": 165,
      "ã": 166,
      "ä": 167,
      "å": 168,
      "æ": 169,
      "ç": 170,
      "è": 171,
      "é": 172,
      "ê": 173,
      "ë": 174,
      "ì": 175,
      "í": 176,
      "î": 177,
      "ï": 178,
      "ð": 179,
      "ñ": 180,
      "ò": 181,
      "ó": 182,
      "ô": 183,
      "õ": 184,
      "ö": 185,
      "÷": 186,
      "ø": 187,
      "ù": 188,
      "ú": 189,
      "û": 190,
      "ü": 191,
      "ý": 192,
      "þ": 193,
      "ÿ": 194,
      "Ā": 195,
      "ā": 196,
      "Ă": 197,
      "ă": 198,
      "Ą": 199,
      "ą": 200,
      "Ć": 201,
      "ć": 202,
      "Ĉ": 203,
      "ĉ": 204,
      "Ċ": 205,
      "ċ": 206,
      "Č": 207,
      "č": 208,
      "Ď": 209,
      "ď": 210,
      "Đ": 211,
      "đ": 212,
      "Ē": 213,
      "ē": 214,
      "Ĕ": 215,
      "ĕ": 216,
      "Ė": 217,
      "ė": 218,
      "Ę": 219,
      "ę": 220,
      "Ě": 221,
      "ě": 222,
      "Ĝ": 223,
      "ĝ": 224,
      "Ğ": 225,
      "ğ": 226,
      "Ġ": 227,
      "ġ": 228,
      "Ģ": 229,
      "ģ": 230,
      "Ĥ": 231,
      "ĥ": 232,
      "Ħ": 233,
      "ħ": 234,
      "Ĩ": 235,
      "ĩ": 236,
      "Ī": 237,
      "ī": 238,
      "Ĭ": 239,
      "ĭ": 240,
      "Į": 241,
      "į": 242,
      "İ": 243,
      "ı": 244,
      "Ĳ": 245,
      "ĳ": 246,
      "Ĵ": 247,
      "ĵ": 248,
      "Ķ": 249,
      "ķ": 250,
      "ĸ": 251,
      "Ĺ": 252,
      "ĺ": 253,
      "Ļ": 254,
      "ļ": 255,
      "Ľ": 256,
      "ľ": 257,
      "Ŀ": 258,
      "ŀ": 259,
      "Ł": 260,
      "ł": 261,
      "Ń": 262,
      "ĠĠ": 263,
      "ãģ": 264,
      "ãĤ": 265,
      "ĠĠĠĠ": 266,
      "ĊĠĠĠĠ": 267,
      "ut": 268,
      "in": 269,
      "ãĤĴ": 270,
      "æķ": 271,
      "re": 272,
      "=Ġ": 273,
      "int": 274,
      "ãĢ": 275,
      "æķ°": 276,
      "]ĊĠĠĠĠ": 277,
      "lt": 278,
      "su": 279,
      "resu": 280,
      "result": 281,
      "out": 282,
      "put": 283,
      "output": 284,
      "=Ġ[": 285,
      "xs": 286,
      "is": 287,
      "lis": 288,
      "list": 289,
      "al": 290,
      "ue": 291,
      "łãģ": 292,
      "Ġlist": 293,
      "[int": 294,
      "Ġlist[int": 295,
      "Ġlist[int]": 296,
      "val": 297,
      "value": 298,
      "ãĢģ": 299,
      "åĢ": 300,
      "ãĥ": 301,
      "åı": 302,
      "or": 303,
      "ãģ¦": 304,
      "xĠ": 305,
      ":ĊĠĠĠĠ": 306,
      "valueĠ": 307,
      "fĠ": 308,
      "for": 309,
      "forĠ": 310,
      "inĠ": 311,
      "ãĤĴæ": 312,
      "Ġ=Ġ[": 313,
      "ve": 314,
      "ãģĦ": 315,
      "ãģłãģ": 316,
      "ol": 317,
      "olve": 318,
      "solve": 319,
      "Ġk": 320,
      ":Ġlist[int]": 321,
      "æķ´": 322,
      "æķ´æķ°": 323,
      "ãģ®": 324,
      "ãģĻ": 325,
      "ãģĹ": 326,
      "åĢ¤": 327,
      "ãĤĭ": 328,
      "ãĤĴåı": 329,
      "ãĤĬ": 330,
      ":ĊĠĠĠĠĠĠĠĠ": 331,
      "ifĠ": 332,
      "®ĭ": 333,
      "ķãģĦ": 334,
      "#Ġ": 335,
      "ãģ¦ãģ": 336,
      "ãĤĴæ®ĭ": 337,
      "forĠxĠ": 338,
      "forĠxĠinĠ": 339,
      "forĠvalueĠ": 340,
      "forĠvalueĠinĠ": 341,
      "(xs": 342,
      ")Ġ": 343,
      "ãĥª": 344,
      "ãģłãģĳ": 345,
      "ãĥĪ": 346,
      "ãģ¦ãĢģ": 347,
      "ãĤ¹": 348,
      "ãĥªãĤ¹": 349,
      "ãĥªãĤ¹ãĥĪ": 350,
      "ãĤĴå": 351,
      "åĲ": 352,
      "åĲĦ": 353,
      "ur": 354,
      "de": 355,
      "tur": 356,
      "turn": 357,
      ",Ġk": 358,
      "->": 359,
      ":Ġ": 360,
      "return": 361,
      "int)Ġ": 362,
      "Ġlist[int]:ĊĠĠĠĠ": 363,
      "fĠsolve": 364,
      ":Ġlist[int],Ġk": 365,
      "(xs:Ġlist[int],Ġk": 366,
      "defĠsolve": 367,
      "->Ġlist[int]:ĊĠĠĠĠ": 368,
      ":Ġint)Ġ": 369,
      "returnĠ": 370,
      "ãĢĤ": 371,
      "æķ´æķ°ãĥªãĤ¹ãĥĪ": 372,
      "æķ´æķ°ãĥªãĤ¹ãĥĪxs": 373,
      "ķãģĦãĢĤ": 374,
      "ıãģłãģ": 375,
      "ıãģłãģķãģĦãĢĤ": 376,
      "ãģ¦ãģıãģłãģķãģĦãĢĤ": 377,
      "éĸ": 378,
      "éĸ¢": 379,
      "éĸ¢æķ°": 380,
      "ãģĳ": 381,
      "æķ´æķ°ãĥªãĤ¹ãĥĪxsãģ": 382,
      "è¦": 383,
      "ç´": 384,
      "è¦ģ": 385,
      "è¦ģç´": 386,
      "ãĤī": 387,
      "resultĠ": 388,
      "outputĠ": 389,
      "åıĸ": 390,
      "solveéĸ¢æķ°": 391,
      "ĭãĤī": 392,
      "]ĊĠĠĠĠreturnĠ": 393,
      "ä¸": 394,
      "ãģ«": 395,
      "éł": 396,
      "ãģłãģĳãĤĴæ®ĭ": 397,
      "+=Ġ[": 398,
      "Ġ=Ġ[]ĊĠĠĠĠ": 399,
      "åıĸãĤĬ": 400,
      "åıĸãĤĬãĢģ": 401,
      "kãĤĴåı": 402,
      "¨æķ´æķ°": 403,
      "Ĺãģĳ": 404,
      "kãĤĴåıĹãģĳ": 405,
      "¨æķ´æķ°kãĤĴåıĹãģĳ": 406,
      "ãĤĭĊĠĠĠĠ": 407,
      "åĲĦè¦ģç´": 408,
      "ãģłãģĳãĤĴæ®ĭãģĻ": 409,
      "]ĊĠĠĠĠ#Ġ": 410,
      "ãĤĴæĽ": 411,
      "ãĤĴæĽ¸": 412,
      "ãģĦãģ¦ãģıãģłãģķãģĦãĢĤ": 413,
      "solveéĸ¢æķ°ãĤĴæĽ¸": 414,
      "ãģĹãģ¦ãĢģ": 415,
      "ãģłãģĳãĤĴæ®ĭãģĻĊĠĠĠĠ": 416,
      "Ġ=Ġ[xĠ": 417,
      "Ġ=Ġ[valueĠ": 418,
      "ãģ®åĢ¤": 419,
      "åĢį": 420,
      "ãģĭãĤī": 421,
      "åĲĦè¦ģç´łãģ": 422,
      "ãģ¹": 423,
      "ãģĹãĢģ": 424,
      "resultĊ": 425,
      "outputĊ": 426,
      "åĢĭ": 427,
      "åĩ": 428,
      "åĩº": 429,
      ":ĊĠĠĠĠĠĠĠĠĠĠĠĠ": 430,
      ":ĊĠĠĠĠĠĠĠĠifĠ": 431,
      "éłĨ": 432,
      "result:Ġlist[int]": 433,
      "output:Ġlist[int]": 434,
      "]ĊĠĠĠĠreturnĠresultĊ": 435,
      "]ĊĠĠĠĠreturnĠoutputĊ": 436,
      "ãģį": 437,
      "Ġ=Ġ[]ĊĠĠĠĠforĠxĠinĠ": 438,
      "resultĠ+=Ġ[": 439,
      "outputĠ+=Ġ[": 440,
      "Ġ=Ġ[]ĊĠĠĠĠforĠvalueĠinĠ": 441,
      "å¾": 442,
      "Ġ2": 443,
      "->Ġlist[int]:ĊĠĠĠĠ#Ġ": 444,
      "å¾Į": 445,
      "ä¸¦": 446,
      "ä»": 447,
      "ãĤĭsolveéĸ¢æķ°ãĤĴæĽ¸": 448,
      "ä»¥": 449,
      "ä»¥ä¸": 450,
      "Ġ=Ġ[xĠforĠxĠinĠ": 451,
      "0Ġ": 452,
      "Ġ=Ġ[valueĠforĠvalueĠinĠ": 453,
      "==Ġ": 454,
      "kåĢĭ": 455,
      "ãģĹãģ¦ãģıãģłãģķãģĦãĢĤ": 456,
      "è£": 457,
      "®Ł": 458,
      "ãĤĴå®Ł": 459,
      "ħãģĹãģ¦ãģıãģłãģķãģĦãĢĤ": 460,
      "ãĤĴå®Łè£": 461,
      "åħ": 462,
      "æľ": 463,
      "ãģĿ": 464,
      "ãĤĴåıĸ": 465,
      "łãĤĴ": 466,
      "ä¸¦ãģ¹": 467,
      "#Ġk": 468,
      "éłĨãģ«": 469,
      "ãģĻãĤĭĊĠĠĠĠ": 470,
      "ãĤĪ": 471,
      "ed": 472,
      "solveéĸ¢æķ°ãĤĴå®Łè£": 473,
      "kãĤĴå": 474,
      "å°": 475,
      "ĠkĠ": 476,
      "ãĤĴé": 477,
      "éłŃ": 478,
      "::": 479,
      "åħĪ": 480,
      "åħĪéłŃ": 481,
      "ãģĭãĤīkåĢĭ": 482,
      "éłĨãģ«ä¸¦ãģ¹": 483,
      "ãģĿãģ®": 484,
      "ãĤĪãĤĬ": 485,
      "resultĠifĠ": 486,
      "outputĠifĠ": 487,
      "»¢": 488,
      "è»¢": 489,
      "]ĊĠĠĠĠresult": 490,
      "]ĊĠĠĠĠoutput": 491,
      "åĲĦè¦ģç´łãĤĴ": 492,
      "kĠ": 493,
      "outputĠ=Ġ": 494,
      "resultĠ=Ġ": 495,
      "kä»¥ä¸": 496,
      "Ń£": 497,
      "ãĤĴåıį": 498,
      "ted": 499,
      "sor": 500,
      "sorted": 501,
      "ãĤĴåıįè»¢": 502,
      "æŃ£": 503,
      "ãģĿãģ®å¾Į": 504,
      ")ĊĠĠĠĠ": 505,
      "%Ġ2": 506,
      "è²": 507,
      "ĠifĠ": 508,
      "ãĤĴæĬ": 509,
      "½åĩº": 510,
      "¤§": 511,
      "åĲĦè¦ģç´łãģ®": 512,
      "¤§ãģį": 513,
      "xsĠifĠ": 514,
      "ãĤĴæĬ½åĩº": 515,
      "çµ": 516,
      "ãģĻãĤĭsolveéĸ¢æķ°ãĤĴæĽ¸": 517,
      "xs:ĊĠĠĠĠĠĠĠĠifĠ": 518,
      "ķãģ": 519,
      "ä¹": 520,
      "ä¹Ĺ": 521,
      "łãģ®": 522,
      "ãĤĭsolveéĸ¢æķ°ãĤĴå®Łè£": 523,
      "Ġ=Ġ": 524,
      "ãĤĴåĪ": 525,
      "*Ġ": 526,
      "<Ġ": 527,
      ">Ġ": 528,
      "åĲĦè¦ģç´łãģ«": 529,
      "ãģ§": 530,
      "åĢ¤ãģłãģĳãĤĴæ®ĭãģĻĊĠĠĠĠ": 531,
      ":ĊĠĠĠĠĠĠĠĠresultĠ+=Ġ[": 532,
      ":ĊĠĠĠĠĠĠĠĠoutputĠ+=Ġ[": 533,
      "ıãģ": 534,
      "å¤§ãģį": 535,
      "ģ¸": 536,
      "ãģĭãĤīkåĢĭãĤĴåıĸ": 537,
      "ãĥŃ": 538,
      "¼ãĥŃ": 539,
      "ãĤ¼ãĥŃ": 540,
      "ãģ®åĢį": 541,
      "ãģ®åĢįæķ°": 542,
      "]ĊĠĠĠĠ#Ġk": 543,
      "==Ġ0": 544,
      "è²łãģ®": 545,
      "0Ġ==Ġ": 546,
      "se": 547,
      "ĩãĤĬ": 548,
      "*Ġ2": 549,
      "kãĤĴ": 550,
      "reve": 551,
      "rever": 552,
      "ãģ¦ãģ®": 553,
      "ãĤĴåĪĩãĤĬ": 554,
      "åģ": 555,
      "¶æķ°": 556,
      "åģ¶æķ°": 557,
      "çµ¶": 558,
      "¥ĩ": 559,
      "å¥ĩ": 560,
      "å¥ĩæķ°": 561,
      "å¯": 562,
      "å¯¾": 563,
      "2åĢį": 564,
      "çµ¶å¯¾": 565,
      "çµ¶å¯¾åĢ¤": 566,
      "[::": 567,
      "ãģĻãģ¹": 568,
      "æŃ£ãģ®åĢ¤": 569,
      "ĭãģ®åĢ¤": 570,
      "ıãģķãģĦ": 571,
      "äº": 572,
      "æķ´æķ°ãĥªãĤ¹ãĥĪxsãģĭãĤī": 573,
      "sorted(": 574,
      "ãĤĴéģ¸": 575,
      "äºĮ": 576,
      "äºĮä¹Ĺ": 577,
      "ãģ®ãģ": 578,
      "ãĤĤ": 579,
      "å¤§ãģįãģĦ": 580,
      "æľ«": 581,
      "ãģĻsolveéĸ¢æķ°ãĤĴæĽ¸": 582,
      "å°¾": 583,
      "æľ«å°¾": 584,
      "ãģĻãģ¹ãģ¦ãģ®": 585,
      "ãģĪ": 586,
      "¦åı": 587,
      "¬¦åı": 588,
      "ç¬¦åı": 589,
      "ç¬¦åı·": 590,
      "kãĤĴåĬ": 591,
      "kãĤĪãĤĬ": 592,
      "kãĤĴå¼": 593,
      "ãģ®ãģ¿": 594,
      "ãģĹãĢģãģĿãģ®å¾Į": 595,
      "output:ĊĠĠĠĠĠĠĠĠifĠ": 596,
      "result:ĊĠĠĠĠĠĠĠĠifĠ": 597,
      "çĽ": 598,
      "éłħ": 599,
      "çĽ®": 600,
      "éłħçĽ®": 601,
      "ãģ³": 602,
      "łãģĪ": 603,
      "kãĤĴåĬłãģĪ": 604,
      "Ĭãģį": 605,
      ":k": 606,
      "å°ıãģķãģĦ": 607,
      "*Ġ3": 608,
      "åĩºãģĹãģ¦ãĢģ": 609,
      "kãģ®åĢįæķ°": 610,
      "ç¬¦åı·ãĤĴåıįè»¢": 611,
      "<=Ġ": 612,
      ">=Ġ": 613,
      "Ļį": 614,
      "[0": 615,
      "kä»¥ä¸Ĭ": 616,
      ",Ġ": 617,
      "se=": 618,
      "reverse=": 619,
      ",Ġreverse=": 620,
      "éłĨãģ«ä¸¦ãģ¹ãĤĭĊĠĠĠĠ": 621,
      "resultĠ+=Ġ[x": 622,
      "outputĠ+=Ġ[x": 623,
      "resultĠ+=Ġ[value": 624,
      "ãģ¦ãģĭãĤī": 625,
      "outputĠ+=Ġ[value": 626,
      "[-": 627,
      "xĠ%Ġ2": 628,
      "ãģ£": 629,
      "valueĠ%Ġ2": 630,
      "!=Ġ": 631,
      "ab": 632,
      "s(": 633,
      "abs(": 634,
      "ä¿": 635,
      "ä¿Ŀ": 636,
      "[-k": 637,
      "-1": 638,
      "[::-1": 639,
      "ĠkĠforĠvalueĠinĠ": 640,
      "ĠkĠforĠxĠinĠ": 641,
      "*Ġ2Ġ": 642,
      "ãģĬãģį": 643,
      "ãģĬãģįãģ«": 644,
      "ãģĭãĤī1": 645,
      "ãģĭãĤī1åĢĭ": 646,
      "]ĊĠĠĠĠ#ĠåĲĦè¦ģç´łãĤĴ": 647,
      "ãģĭãĤī1åĢĭãģĬãģįãģ«": 648,
      "ĺĩ": 649,
      "kä»¥ä¸ĭãģ®åĢ¤": 650,
      "ãĤ¿": 651,
      "è¦ģç´ł": 652,
      "->Ġlist[int]:ĊĠĠĠĠ#Ġk": 653,
      "åĲĦè¦ģç´łãģĭãĤī": 654,
      "Ġ=Ġ[xĠforĠxĠinĠxsĠifĠ": 655,
      "ãĤĴä¿Ŀ": 656,
      "åĲĦè¦ģç´łãģ®çµ¶å¯¾åĢ¤": 657,
      "output:Ġlist[int]Ġ=Ġ": 658,
      "æľĢ": 659,
      "result:Ġlist[int]Ġ=Ġ": 660,
      "åĲĦè¦ģç´łãģĭãĤīkãĤĴå¼": 661,
      "īåĢį": 662,
      "ä¸īåĢį": 663,
      "åħĪéłŃãģĭãĤīkåĢĭãĤĴåıĸ": 664,
      "3åĢį": 665,
      "ãģķãģ": 666,
      "ãģķãģĽ": 667,
      "æľĢå¾Į": 668,
      "kãĤĴæ": 669,
      "ãģĭ": 670,
      "çı": 671,
      "çı¾": 672,
      "ķãģı": 673,
      "]ĊĠĠĠĠresultĠ=Ġ": 674,
      "]ĊĠĠĠĠoutputĠ=Ġ": 675,
      "åľ": 676,
      "åľ¨": 677,
      "çı¾åľ¨": 678,
      "çı¾åľ¨ãģ®": 679,
      "åĲĦè¦ģç´łãģ«kãĤĴåĬłãģĪ": 680,
      "æľ«å°¾ãģĭãĤīkåĢĭãĤĴåıĸ": 681,
      "®Ĺ": 682,
      "ç®Ĺ": 683,
      "ãĤĴéģ¸ãģ³": 684,
      "ãĤĮ": 685,
      "x:ĊĠĠĠĠĠĠĠĠĠĠĠĠ": 686,
      "æľĢå¾Įãģ«": 687,
      "value:ĊĠĠĠĠĠĠĠĠĠĠĠĠ": 688,
      "ãģĻãĤĭĊĠĠĠĠresult": 689,
      "Ġ=Ġ[]ĊĠĠĠĠforĠxĠinĠxs": 690,
      "ãģĻãĤĭĊĠĠĠĠoutput": 691,
      "sorted(xs": 692,
      "ãģ£ãģ¦ãĢģ": 693,
      ")ĊĠĠĠĠreturnĠ": 694,
      "ãģ®ãģ¿ãĤĴæ®ĭ": 695,
      "ãĤĴä¸īåĢį": 696,
      "åĢ¤ãĤĴå": 697,
      "ªæ": 698,
      "kæľ": 699,
      "ºĢ": 700,
      "ªæºĢ": 701,
      "kæľªæºĢ": 702,
      "ãĥ¼": 703,
      "*Ġ3Ġ": 704,
      "åº": 705,
      "éłĨåº": 706,
      "éłĨåºı": 707,
      "kæľªæºĢãģ®åĢ¤": 708,
      "ĩãĥ¼": 709,
      "ãĥĩãĥ¼": 710,
      "ãĥĩãĥ¼ãĤ¿": 711,
      "sorted(output": 712,
      "sorted(result": 713,
      "æĮ": 714,
      "]ĊĠĠĠĠoutput:Ġlist[int]": 715,
      "ãĤĴ2åĢį": 716,
      "İĽ": 717,
      "kãĤĴæİĽ": 718,
      "kãĤĴæİĽãģĳ": 719,
      "]ĊĠĠĠĠresult:Ġlist[int]": 720,
      "]ĊĠĠĠĠ#ĠkãĤĪãĤĬ": 721,
      "ãģ«kãĤĴ": 722,
      "Ġ=Ġ[-": 723,
      "]ĊĠĠĠĠ#Ġkä»¥ä¸": 724,
      "ãģłãģĳãĤĴæ®ĭãģĹãĢģ": 725,
      "Ġk:ĊĠĠĠĠĠĠĠĠĠĠĠĠ": 726,
      ":ĊĠĠĠĠĠĠĠĠoutputĠ+=Ġ[xĠ": 727,
      "0:ĊĠĠĠĠĠĠĠĠĠĠĠĠ": 728,
      ":ĊĠĠĠĠĠĠĠĠresultĠ+=Ġ[xĠ": 729,
      "åĲĦæķ°": 730,
      "ãģŁ": 731,
      "æĽ": 732,
      "æĽ¿": 733,
      "æĽ¿ãģĪ": 734,
      "ãģ¦ãģĭãĤīãĢģ": 735,
      "valueĠforĠvalueĠinĠ": 736,
      "==Ġ0:ĊĠĠĠĠĠĠĠĠĠĠĠĠ": 737,
      "Ġ=Ġ[abs(": 738,
      "ãĢģãģĿãģ®å¾Į": 739,
      "xĠforĠxĠinĠ": 740,
      "åĪ": 741,
      "åĲĦéłħçĽ®": 742,
      "kãĤĪãĤĬãĤĤ": 743,
      "ãģĭãģĳ": 744,
      "åĲĦè¦ģç´łãģ«kãĤĴæİĽãģĳ": 745,
      "ãĤĴè": 746,
      "è²łãģ®æķ°": 747,
      "ãĤĵ": 748,
      "ãĤĵãģ§": 749,
      "å¤§ãģįãģĦåĢ¤": 750,
      "[0:k": 751,
      "æĺĩ": 752,
      "[:k": 753,
      "<=Ġk": 754,
      "0Ġ<Ġ": 755,
      "kĠ>=Ġ": 756,
      "kĠ<Ġ": 757,
      "ãĤģ": 758,
      "ãģª": 759,
      "ķãģıĊĠĠĠĠ": 760,
      "ãģ«ãģĹãģ¦ãĢģ": 761,
      "ãĤĴéĻį": 762,
      "%ĠkĠ": 763,
      "kĠ>Ġ": 764,
      "0Ġ>Ġ": 765,
      "Fal": 766,
      ",Ġreverse=Fal": 767,
      ",Ġreverse=False": 768,
      "æĺĩéłĨãģ«ä¸¦ãģ¹ãĤĭĊĠĠĠĠ": 769,
      "ãģłãģĳãĤĴæĬ½åĩº": 770,
      "ãĤĭĊĠĠĠĠresultĠ=Ġ": 771,
      "ãĤĭĊĠĠĠĠoutputĠ=Ġ": 772,
      "æĮģ": 773,
      "åĩºãģĻsolveéĸ¢æķ°ãĤĴæĽ¸": 774,
      "éłĨãĤĴåıįè»¢": 775,
      "çı¾åľ¨ãģ®è¦ģç´ł": 776,
      "åĲĦè¦ģç´łãĤĴäºĮä¹Ĺ": 777,
      "outputĠ=Ġ[xĠforĠxĠinĠ": 778,
      "è¦ģç´łãĤĴ": 779,
      "ãĤĴä¿ĿæĮģ": 780,
      "resultĠ=Ġ[xĠforĠxĠinĠ": 781,
      "(rever": 782,
      "sed": 783,
      "(reversed": 784,
      "éłĨãĤĴåıįè»¢ãģĻãĤĭĊĠĠĠĠ": 785,
      "ãĤĭĊĠĠĠĠresult": 786,
      ")ĊĠĠĠĠ#Ġ": 787,
      "éĻį": 788,
      "ãĤĭĊĠĠĠĠoutput": 789,
      "0Ġ!=Ġ": 790,
      "xĠ%Ġ2Ġ": 791,
      "kĠ<=Ġ": 792,
      "éłĨãģ«ä¸¦ãģ¹æĽ¿ãģĪ": 793,
      ">=Ġk": 794,
      "valueĠ%Ġ2Ġ": 795,
      "Ĭãģ®åĢ¤": 796,
      "[-k:": 797,
      "list(reversed": 798,
      "ĢĨ": 799,
      "ãģĭãĤī1åĢĭãģĬãģįãģ«åıĸ": 800,
      "[::2": 801,
      "[-k::": 802,
      "Ġk]ĊĠĠĠĠ#Ġ": 803,
      "Ġ=Ġ[valueĠ*": 804,
      "::2": 805,
      "[0::2": 806,
      "Tr": 807,
      "çķ": 808,
      ",Ġreverse=Tr": 809,
      ",Ġreverse=True": 810,
      "Ġ=Ġ[xĠ*": 811,
      "éĻįéłĨãģ«ä¸¦ãģ¹ãĤĭĊĠĠĠĠ": 812,
      "*Ġ2ĠforĠxĠinĠ": 813,
      "æ®ĭ": 814,
      "ķãģį": 815,
      "ãģĨ": 816,
      ")[::-1": 817,
      "åħ¨": 818,
      "ãĤĤãģ®": 819,
      "*Ġ2ĠforĠvalueĠinĠ": 820,
      "ãģı": 821,
      "resultĠifĠxĠ": 822,
      "outputĠifĠxĠ": 823,
      "ãĤĴéĢĨ": 824,
      "è²łãģ®åĢ¤": 825,
      "resultĠifĠvalueĠ": 826,
      "outputĠifĠvalueĠ": 827,
      "ļĶ": 828,
      "éļĶ": 829,
      "xs]ĊĠĠĠĠ#Ġ": 830,
      "ãĤĴéģ¸ãĤĵãģ§": 831,
      "åĢ¤ãĤĴéĻį": 832,
      "kä»¥ä¸Ĭãģ®åĢ¤": 833,
      "çķª": 834,
      "éļĶçķª": 835,
      "¨Ī": 836,
      "¨Īç®Ĺ": 837,
      "ãĤĴæ®ĭãģĹãģ¦ãĢģ": 838,
      "åĢ¤ãĤĴæ": 839,
      "ãĤĴæ®ĭãģĹ": 840,
      "éĸ¢æķ°solve": 841,
      "æŃ£è²": 842,
      "ãĤĴäºĮä¹Ĺ": 843,
      "éĸ¢æķ°solveãĤĴå®Łè£": 844,
      "ãĤĴæ®ĭãģĹãĢģ": 845,
      "ãĤĴæĬ½åĩºãģĹãģ¦ãĢģ": 846,
      "kãĤĪãĤĬå¤§ãģįãģĦåĢ¤": 847,
      "ãģŁå¾Į": 848,
      "éłĨãģ«ä¸¦ãģ¹ãģ¦ãĢģ": 849,
      "ãģĿãĤĮ": 850,
      "ãģĻsolveéĸ¢æķ°ãĤĴå®Łè£": 851,
      "ä¸¦ãģ³": 852,
      "åħĪéłŃãģĭãĤīkåĢĭ": 853,
      "åĲĦãĥĩãĥ¼ãĤ¿": 854,
      "ãģ®æķ°": 855,
      "xsĠifĠvalueĠ": 856,
      "Ġ=Ġ[xĠforĠxĠinĠxsĠifĠxĠ": 857,
      "ãĤĴè¨Īç®Ĺ": 858,
      "xs:ĊĠĠĠĠĠĠĠĠifĠxĠ": 859,
      "æľ«å°¾ãģĭãĤīkåĢĭ": 860,
      "xs:ĊĠĠĠĠĠĠĠĠresultĠ+=Ġ[": 861,
      "xs:ĊĠĠĠĠĠĠĠĠifĠvalueĠ": 862,
      "Ġk]ĊĠĠĠĠreturnĠoutputĊ": 863,
      "åĢ¤ãĤĴå°": 864,
      "Ġk]ĊĠĠĠĠreturnĠresultĊ": 865,
      "xs:ĊĠĠĠĠĠĠĠĠoutputĠ+=Ġ[": 866,
      "outputĠifĠ0Ġ==Ġ": 867,
      "åıĸãĤĬãĢģkãģ®åĢįæķ°": 868,
      "±Ĥ": 869,
      "ãĤĴåĪĩãĤĬåıĸ": 870,
      "ĠkĠforĠvalueĠinĠoutput": 871,
      ")ĊĠĠĠĠreturnĠoutputĊ": 872,
      ")ĊĠĠĠĠreturnĠresultĊ": 873,
      "±ĤãĤģ": 874,
      ">Ġ0": 875,
      "ĠkĠforĠxĠinĠoutput": 876,
      "ĠkĠforĠvalueĠinĠresult": 877,
      "resultĠifĠ0Ġ==Ġ": 878,
      "*Ġ3ĠforĠvalueĠinĠ": 879,
      "%ĠkĠ==Ġ0": 880,
      "æķ°ãģ®": 881,
      "ãĤĴä¸īåĢįãģĹãģ¦ãĢģ": 882,
      "åĢ¤ãĤĴæĺĩ": 883,
      "*Ġ3ĠforĠxĠinĠ": 884,
      "¤ī": 885,
      "éĽ": 886,
      "åĲĦåĢ¤": 887,
      "ãĤĴæ±ĤãĤģ": 888,
      "Ńĺ": 889,
      "list(reversed(": 890,
      "åĪĹ": 891,
      "ĠkĠforĠxĠinĠresult": 892,
      "]ĊĠĠĠĠ#Ġkä»¥ä¸ĭãģ®åĢ¤": 893,
      "åĲĦè¦ģç´łãĤĴ2åĢį": 894,
      "<Ġ0": 895,
      "ãģ²": 896,
      "Ġ=Ġ[valueĠ-": 897,
      "Ġ=Ġ[xĠ*Ġ3ĠforĠxĠinĠ": 898,
      "è¶": 899,
      "valueĠ*": 900,
      "Ġ=Ġ[xĠ-": 901,
      "kä»¥ä¸Ĭãģ®": 902,
      "ãģĹãģ¦ãģĭãĤīãĢģ": 903,
      "ŀãĤĮ": 904,
      "ãģŀãĤĮ": 905,
      "åĢ¤ãĤĴå°ıãģķãģĦ": 906,
      "ãģĿãĤĮãģŀãĤĮ": 907,
      "Ġ=Ġ[-xĠforĠxĠinĠ": 908,
      "]ĊĠĠĠĠ#Ġkãģ®åĢįæķ°": 909,
      "åĲĦè¦ģç´łãĤĴ3åĢį": 910,
      "ãĤĴåĪĩãĤĬåĩºãģĹãģ¦ãĢģ": 911,
      "value]ĊĠĠĠĠ#Ġ": 912,
      "åıĸãĤĬãĢģkä»¥ä¸ĭãģ®åĢ¤": 913,
      "value)Ġ": 914,
      "value)ĠforĠvalueĠinĠ": 915,
      "å°ıãģķãģĦåĢ¤": 916,
      "!=Ġ0": 917,
      "ãģŁå¾ĮãĢģ": 918,
      "x]ĊĠĠĠĠ#Ġ": 919,
      "x)Ġ": 920,
      "x)ĠforĠxĠinĠ": 921,
      "ãģłãģĳãĤĴéģ¸ãģ³": 922,
      "Ġ=Ġ[xĠ*Ġ2ĠforĠxĠinĠ": 923,
      "]ĊĠĠĠĠ#Ġkä»¥ä¸Ĭãģ®åĢ¤": 924,
      "å¤§ãģįãģª": 925,
      "å¤§ãģįãģªåĢ¤": 926,
      "Ġ=Ġ[abs(x)ĠforĠxĠinĠ": 927,
      "output:Ġlist[int]Ġ=Ġxs": 928,
      "ãģĭãĤīkãĤĴå¼": 929,
      "ãģ¨": 930,
      "Ġ=Ġ[valueĠ+": 931,
      "kãĤĴãģĭãģĳ": 932,
      "Ġ=Ġ[xĠ+": 933,
      "ãģ«kãĤĴãģĭãģĳ": 934,
      "ãģĻãģ¹ãģ¦ãģ®éłħçĽ®": 935,
      "éļĶçķªãģ§": 936,
      "åħ¨ãģ¦ãģ®": 937,
      "ãģĻãģ¹ãģ¦ãģ®è¦ģç´łãĤĴ": 938,
      "æŃ£è²ł": 939,
      "result:Ġlist[int]Ġ=Ġxs": 940,
      "ãģĹãĢģæľĢå¾Įãģ«": 941,
      "å¾Ĺ": 942,
      "ãĤĪãģĨ": 943,
      "æĸ": 944,
      "æĸ¹": 945,
      "éłĨåºıãĤĴåıįè»¢": 946,
      "¤īãģĪ": 947,
      "ãģĹãĢģãģĿãģ®å¾Įãģ§": 948,
      "ãģ«kãĤĴåĬłãģĪ": 949,
      "ãĤĭåĢ¤": 950,
      "³æĸ¹": 951,
      "¹³æĸ¹": 952,
      "ãģ«kãĤĴä¹Ĺ": 953,
      "ãĤĭéĸ¢æķ°solveãĤĴå®Łè£": 954,
      "ãģĺ": 955,
      "]ĊĠĠĠĠresultĠ=Ġresult": 956,
      "xĠ%": 957,
      "éģ¸": 958,
      "ãĤĴæĬ½åĩºãģĹãĢģ": 959,
      "ãģĹãģ¦": 960,
      "]ĊĠĠĠĠoutputĠ=Ġoutput": 961,
      "valueĠ%": 962,
      "ãģĦãģ¦ãĢģ": 963,
      "x]ĊĠĠĠĠreturnĠoutputĊ": 964,
      "x]ĊĠĠĠĠreturnĠresultĊ": 965,
      "xs:ĊĠĠĠĠĠĠĠĠifĠ0Ġ==Ġ": 966,
      "ãĤĤãģ®ãģĭãĤī": 967,
      "kãĤĴè¶": 968,
      "0Ġ!=ĠxĠ%Ġ2": 969,
      "åıĸãĤĬãĢģãĤ¼ãĥŃ": 970,
      "ãģ«ãģĻ": 971,
      "åŃĺ": 972,
      "0Ġ!=ĠvalueĠ%Ġ2": 973,
      "åıĸãĤĬãĢģåģ¶æķ°": 974,
      "ãĤĭĊĠĠĠĠoutputĠ=Ġoutput": 975,
      "ãģ¦ãģ®åĢ¤": 976,
      "ãĤĴç": 977,
      "ãģısolveéĸ¢æķ°ãĤĴæĽ¸": 978,
      "æĬ": 979,
      "ãĤĭĊĠĠĠĠresultĠ=Ġresult": 980,
      "ãģĹãģ¦ãģĭãĤī": 981,
      "£ãĥ": 982,
      "«ãĤ¿": 983,
      "ķãĤ": 984,
      "ãĥķãĤ": 985,
      "£ãĥ«ãĤ¿": 986,
      "ãĥķãĤ£ãĥ«ãĤ¿": 987,
      "resultĠ+=Ġ[x]ĊĠĠĠĠ#Ġ": 988,
      "outputĠ+=Ġ[x]ĊĠĠĠĠ#Ġ": 989,
      "ä½": 990,
      "ãĤĴãĥķãĤ£ãĥ«ãĤ¿": 991,
      "output:ĊĠĠĠĠĠĠĠĠifĠxĠ": 992,
      "åĢ¤ãĤĴå¤§ãģį": 993,
      "åĢ¤ãģ®": 994,
      "result:ĊĠĠĠĠĠĠĠĠifĠxĠ": 995,
      "ä»¥ä¸ĭãģ®åĢ¤": 996,
      "ãĤĴä¿ĿåŃĺ": 997,
      "ãĤĪãĤĬå¤§ãģįãģĦ": 998,
      "ãĤĴåĪĩãĤĬåĩº": 999,
      "valueĠ-": 1000,
      "çµ¶å¯¾åĢ¤ãĤĴæ±ĤãĤģ": 1001,
      "ãĤĪãĤĬå°ıãģķãģĦ": 1002,
      "ãĤĴå¹³æĸ¹": 1003,
      "åıĸãĤĬãĢģå¥ĩæķ°": 1004,
      "åıĸãĤĬãĢģkæľªæºĢãģ®åĢ¤": 1005,
      "åĲĦè¦ģç´łãģ«kãĤĴãģĭãģĳ": 1006,
      "ãģĻãģ¹ãģ¦ãģ®æķ°": 1007,
      "ãĤĴå¤īãģĪ": 1008,
      "ãģ«kãĤĴä¹Ĺãģĺ": 1009,
      "Ġk]ĊĠĠĠĠresult": 1010,
      "åıĸãĤĬãĢģæŃ£ãģ®åĢ¤": 1011,
      ",Ġreverse=False)ĊĠĠĠĠ": 1012,
      "valueĠ*Ġ3": 1013,
      "ãĤĴåıĸãĤĬ": 1014,
      "åĢ¤ãĤĴå¤§ãģįãģĦ": 1015,
      ">Ġ0:ĊĠĠĠĠĠĠĠĠĠĠĠĠ": 1016,
      "<=Ġk:ĊĠĠĠĠĠĠĠĠĠĠĠĠ": 1017,
      "éłĨåºıãĤĴéĢĨ": 1018,
      "Ġk]ĊĠĠĠĠoutput": 1019,
      "åıĸãĤĬãĢģkãĤĪãĤĬãĤĤ": 1020,
      ">Ġk:ĊĠĠĠĠĠĠĠĠĠĠĠĠ": 1021,
      "<Ġ0:ĊĠĠĠĠĠĠĠĠĠĠĠĠ": 1022,
      "<Ġk:ĊĠĠĠĠĠĠĠĠĠĠĠĠ": 1023,
      "ä¸¦ãģ¹ãģ¦ãĢģ": 1024,
      "ãĥ³": 1025,
      "ãĤ°": 1026,
      "ãĥªãĥ³": 1027,
      "ãĥªãĥ³ãĤ°": 1028,
      "ä¸Ń": 1029,
      "%ĠkĠ==Ġ0:ĊĠĠĠĠĠĠĠĠĠĠĠĠ": 1030,
      "åĪ¥": 1031,
      "łãģ«": 1032,
      "ãģ£ãģı": 1033,
      "ãģ²ãģ£ãģı": 1034,
      "ãģ²ãģ£ãģıãĤĬ": 1035,
      "ãĤĴæ®ĭãģĹãģ¦ãģ": 1036,
      "ç¬¦åı·ãĤĴåıįè»¢ãģķãģĽ": 1037,
      "))ĊĠĠĠĠ": 1038,
      "ãģĮ": 1039,
      "åıĸãĤĬãĢģåħĪéłŃ": 1040,
      "value)": 1041,
      "abs(value)": 1042,
      "åıĸãĤĬãĢģåĲĦéłħçĽ®": 1043,
      "valueĠ+": 1044,
      "]ĊĠĠĠĠ#ĠæŃ£ãģ®åĢ¤": 1045,
      "ä»¥ä¸Ĭãģ®åĢ¤": 1046,
      "ĠkĠforĠxĠinĠxs": 1047,
      "ãģĻãģ¹ãģ¦ãģ®åĢ¤": 1048,
      ",Ġreverse=True)ĊĠĠĠĠ": 1049,
      "ĠkĠforĠvalueĠinĠxs": 1050,
      "ãĤĴåıĸå¾Ĺ": 1051,
      "ãĤĴéģ¸ãĤĵãģ§ãĢģ": 1052,
      "ãģĿãģ®ä¸Ń": 1053,
      "!=Ġ0:ĊĠĠĠĠĠĠĠĠĠĠĠĠ": 1054,
      "ãĤĴéģ¸ãģ³åĩºãģĹãģ¦ãĢģ": 1055,
      "]ĊĠĠĠĠ#ĠåĲĦè¦ģç´łãģ®": 1056,
      "x)": 1057,
      "abs(x)": 1058,
      "kä»¥ä¸ĭ": 1059,
      ">=Ġk:ĊĠĠĠĠĠĠĠĠĠĠĠĠ": 1060,
      "éĽĨ": 1061,
      "]ĊĠĠĠĠ#ĠãĤ¼ãĥŃ": 1062,
      "valueĠ*Ġ2": 1063,
      "åıĸãĤĬãĢģåĲĦæķ°": 1064,
      "ãģłãģĳãĤĴæĬ½åĩºãģĻ": 1065,
      "]ĊĠĠĠĠ#Ġè²łãģ®": 1066,
      "ķãģıĊĠĠĠĠoutput": 1067,
      "ĭ¾": 1068,
      "¼ķãģį": 1069,
      "ãĤĴ2åĢįãģ«ãģĹãģ¦ãĢģ": 1070,
      "¸Ľ": 1071,
      "ķãģıĊĠĠĠĠresult": 1072,
      "outputĠ=Ġsorted(output": 1073,
      "ãģĹãģŁå¾ĮãĢģ": 1074,
      "]ĊĠĠĠĠ#Ġå¥ĩæķ°": 1075,
      "ãģĭãģĪ": 1076,
      "ãģĿãģ®ä¸ŃãģĭãĤī": 1077,
      "ãģĤ": 1078,
      "ãģĭãĤī1åĢĭãģĬãģįãģ«éģ¸": 1079,
      "]Ċ": 1080,
      "ãĤĴå¼ķãģį": 1081,
      "ĬãģįãĢģ": 1082,
      "]ĊĠĠĠĠoutputĠ=Ġresult": 1083,
      "ãĤĴ2åĢįãģĹãģ¦ãĢģ": 1084,
      "]ĊĠĠĠĠ#Ġåģ¶æķ°": 1085,
      "]ĊĠĠĠĠresultĠ=Ġoutput": 1086,
      "]ĊĠĠĠĠ#Ġçı¾åľ¨ãģ®è¦ģç´ł": 1087,
      "æŃ£ãģ®æķ°": 1088,
      "resultĠ=Ġxs": 1089,
      "*ĠvalueĠforĠvalueĠinĠ": 1090,
      "resultĠ=Ġsorted(result": 1091,
      "ãĤĴåıĸãĤĭĊĠĠĠĠ": 1092,
      "ãģ®ãģ¿ãĤĴæ®ĭãģĹãĢģ": 1093,
      "outputĠ=Ġxs": 1094,
      "ãģ®kåĢĭ": 1095,
      "*Ġ2ĠforĠvalueĠinĠresult": 1096,
      "ãģ¶": 1097,
      "outputĠ=Ġsorted(xs": 1098,
      "ä¸Ĭ": 1099,
      "ãģĻãģ¹ãģ¦ãģ®ãĥĩãĥ¼ãĤ¿": 1100,
      "list(reversed(result": 1101,
      "Ġ=Ġ[xĠ**Ġ2ĠforĠxĠinĠ": 1102,
      "*ĠxĠforĠxĠinĠ": 1103,
      "ãĤĴåĪĩãĤĬåıĸãģ£ãģ¦ãĢģ": 1104,
      "resultĠ=Ġsorted(xs": 1105,
      "*Ġ2ĠforĠvalueĠinĠoutput": 1106,
      "list(reversed(xs": 1107,
      ":ĊĠĠĠĠĠĠĠĠoutputĠ+=Ġ[-": 1108,
      "ãĢģæľĢå¾Įãģ«": 1109,
      "list(reversed(output": 1110,
      "ãĤĴåıĸãĤĭĊĠĠĠĠresult": 1111,
      "ãĤĴåıĸãĤĭĊĠĠĠĠoutput": 1112,
      ":ĊĠĠĠĠĠĠĠĠresultĠ+=Ġ[-": 1113,
      "ãĤĴåĪĨ": 1114,
      "Ġ=Ġ[xĠ*ĠxĠforĠxĠinĠ": 1115,
      "ãģłãģĳãĤĴæ®ĭãģĹãģ¦ãĢģ": 1116,
      "æ®ĭãģĹãģ¦ãĢģ": 1117,
      "åģ¶æķ°ãģłãģĳ": 1118,
      "]ĊĠĠĠĠ#ĠåħĪéłŃ": 1119,
      "æĬľ": 1120,
      "ãĤĭĊĠĠĠĠresultĠ=Ġoutput": 1121,
      "ãģªãģĮ": 1122,
      "ãģªãģĮãĤī": 1123,
      "ãĤĭĊĠĠĠĠoutputĠ=Ġresult": 1124,
      "xĠ%Ġ2Ġ==Ġ0": 1125,
      "¸ĽãĤī": 1126,
      "ãģĵ": 1127,
      "çµ¶å¯¾åĢ¤ãĤĴè¨Īç®Ĺ": 1128,
      "è¿": 1129,
      "xĠ%Ġ2Ġ!=Ġ0": 1130,
      "returnĠ[": 1131,
      "valueĠ%Ġ2Ġ==Ġ0": 1132,
      "ãģĹãģ¦ãģ": 1133,
      "valueĠ%Ġ2Ġ!=Ġ0": 1134,
      "ãģ§ãģĤ": 1135,
      "ãģĪãĤĭåĢ¤": 1136,
      "ãģĭãĤīkãĤĴå¼ķãģį": 1137,
      "ãģ°": 1138,
      "ãģĽ": 1139,
      "ãģ®ãģ¿ãĤĴæĬ½åĩº": 1140,
      "kä»¥ä¸ĭãģ®": 1141,
      "ãģ°ãģĽ": 1142,
      "ä¸¦ãģ°ãģĽ": 1143,
      "ıãģķãģ": 1144,
      "æ®ĭãģĻsolveéĸ¢æķ°ãĤĴæĽ¸": 1145,
      "éĽ¢": 1146,
      "ãĤĴä¿ĿæĮģãģĹãģ¦ãĢģ": 1147,
      "æŃ£è²łãĤĴåıįè»¢": 1148,
      "ãĤĴãģ²ãģ£ãģıãĤĬ": 1149,
      "è¦ģç´łãģ«": 1150,
      "ãģĻãĤĪãģĨ": 1151,
      "åĢ¤ãĤĴæĺĩéłĨãģ«ä¸¦ãģ¹": 1152,
      "ãģķ": 1153,
      "xsĠifĠ0Ġ==Ġ": 1154,
      "ãĤĴæĬľ": 1155,
      "çµŀ": 1156,
      "ıãģķãģª": 1157,
      "0Ġ<Ġvalue": 1158,
      "ãĤĴå¤īãģĪãģ¦ãĢģ": 1159,
      "ãĤĴäºĮä¹ĹãģĹãģ¦ãĢģ": 1160,
      "éļĶçķªãģ«": 1161,
      "æ®ĭãģĹãĢģ": 1162,
      "İéĽĨ": 1163,
      "kä»¥ä¸ĭãģ®ãĤĤãģ®": 1164,
      "ãģ«kãĤĴãģĭãģĳãģ¦ãĢģ": 1165,
      "ãĤĴåĪĩãĤĬæĬľ": 1166,
      "è¿Ķ": 1167,
      "kĠ<Ġvalue": 1168,
      "ãĤĴæĭ¾": 1169,
      "0Ġ>Ġvalue": 1170,
      "kĠ>=Ġvalue": 1171,
      "ãģĵãģ¨": 1172,
      "ãģķãģĽãģ¦ãĢģ": 1173,
      "x]ĊĠĠĠĠresult": 1174,
      "ãĤĴ2åĢįãģ«": 1175,
      "kä»¥ä¸Ĭãģ§ãģĤ": 1176,
      "ãĤĭĊĠĠĠĠresultĠ=Ġxs": 1177,
      "æľ«å°¾kåĢĭ": 1178,
      "éłĨåºıãĤĴåıįè»¢ãģķãģĽ": 1179,
      "Ĭãģısolveéĸ¢æķ°ãĤĴæĽ¸": 1180,
      "x]ĊĠĠĠĠoutput": 1181,
      "kĠ>Ġvalue": 1182,
      ",Ġreverse=False)ĊĠĠĠĠ#Ġ": 1183,
      "ãĤĴåĪĨãģĳ": 1184,
      "ãģ«kãĤĴä¹Ĺãģĺãģ¦ãĢģ": 1185,
      "åĪĹãģ®": 1186,
      "ãĤĤãģ®ãģ": 1187,
      "ãĤĤãģ®ãģ¸": 1188,
      "ãĤĬåĩº": 1189,
      "åıĸãĤĬãĢģè²łãģ®æķ°": 1190,
      "))ĊĠĠĠĠ#Ġ": 1191,
      "å¼": 1192,
      "kãĤĴãģ²": 1193,
      "äºĮä¹ĹãģĻãĤĭĊĠĠĠĠoutput": 1194,
      "æĮĻ": 1195,
      "åıĸãĤĬãĢģkä»¥ä¸Ĭãģ®åĢ¤": 1196,
      "]ĠifĠ": 1197,
      "3åĢįãģĻãĤĭĊĠĠĠĠresult": 1198,
      "3åĢįãģĻãĤĭĊĠĠĠĠoutput": 1199,
      "åıĸãĤĬãĢģåĲĦè¦ģç´łãģ®": 1200,
      "ãĤĭĊĠĠĠĠoutputĠ=Ġxs": 1201,
      "äºĮä¹ĹãģĻãĤĭĊĠĠĠĠresult": 1202,
      "ç®ĹãģĹãģ¦ãĢģ": 1203,
      "kĠ<=Ġvalue": 1204,
      "ãĤĴæĬľãģį": 1205,
      "ãģ«ãģĹãĢģ": 1206,
      "ä¸¦ãģ³ãĤĴéĢĨ": 1207,
      "ķãģĦãģ¦ãĢģ": 1208,
      "ãĤĴæ®ĭãģĻãĤĪãģĨ": 1209,
      "kãĤĪãĤĬãĤĤå¤§ãģįãģªåĢ¤": 1210,
      "ķãģısolveéĸ¢æķ°ãĤĴæĽ¸": 1211,
      "åıĸãĤĬãĢģkä»¥ä¸Ĭãģ®": 1212,
      "¶ļ": 1213,
      "*Ġ3ĠforĠvalueĠinĠresult": 1214,
      "2åĢįãģĻãĤĭĊĠĠĠĠresult": 1215,
      "ãģłãģĳãĤĴæ®ĭãģĻãĤĪãģĨ": 1216,
      ",Ġreverse=True)ĊĠĠĠĠ#Ġ": 1217,
      "åĪĹæĮĻ": 1218,
      "ç¶ļ": 1219,
      "*Ġ3ĠforĠvalueĠinĠoutput": 1220,
      "è¦ģç´łãģ®": 1221,
      "kãĤĴæ¸ĽãĤī": 1222,
      "ãĤĴä¿ĿæĮģãģĻ": 1223,
      "ãĤĴåıĸãĤĬåĩºãģĹãģ¦ãĢģ": 1224,
      "ãģ¾": 1225,
      "Ġ=Ġ[-xĠforĠxĠinĠresult": 1226,
      "ãĤĴåĪĩãĤĬéĽ¢": 1227,
      "xs]ĊĠĠĠĠresult": 1228,
      "2åĢįãģĻãĤĭĊĠĠĠĠoutput": 1229,
      "ãģ«kãĤĴåĬłãģĪãģ¦ãĢģ": 1230,
      "ãģ«çµŀ": 1231,
      "Ġ=Ġ[-xĠforĠxĠinĠoutput": 1232,
      "sorted(result)[::-1": 1233,
      "ãĢģãģĿãģ®å¾Įãģ§": 1234,
      "sorted(output)[::-1": 1235,
      "xs]ĊĠĠĠĠoutput": 1236,
      "ãĥªãĤ¹ãĥĪãģ®": 1237,
      "åıĸãĤĬãĢģåĲĦãĥĩãĥ¼ãĤ¿": 1238,
      "åħĪéłŃkåĢĭ": 1239,
      "åī": 1240,
      "å°ıãģķãģª": 1241,
      "kä»¥ä¸Ĭãģ§ãģĤãĤĭ": 1242,
      "kãĤĴè¶ħ": 1243,
      "å°ıãģķãģªåĢ¤": 1244,
      "æķ°åĪĹãģ®": 1245,
      "ãĤĴå¹³æĸ¹ãģĹãģ¦ãĢģ": 1246,
      "ãģłãģĳãĤĴæĬ½åĩºãģĹãĢģ": 1247,
      "¢º": 1248,
      "«¯": 1249,
      "ç«¯": 1250,
      "ãĤĴç¢º": 1251,
      "ãĤĴ3åĢį": 1252,
      "ãĤĴç¢ºä¿Ŀ": 1253,
      "åīį": 1254,
      "åıĸãĤĬãĢģåĢ¤ãĤĴéĻį": 1255,
      "kĠ>Ġvalue:ĊĠĠĠĠĠĠĠĠĠĠĠĠ": 1256,
      "®ãģĹ": 1257,
      "·®ãģĹ": 1258,
      "kãĤĴå·®ãģĹ": 1259,
      "ãģ»": 1260,
      "valueĠ**Ġ2": 1261,
      "**Ġ2": 1262,
      "æķ´æķ°ãĥªãĤ¹ãĥĪxsãģ®": 1263,
      "ãģ»ãģĨ": 1264,
      "0Ġ<Ġx:ĊĠĠĠĠĠĠĠĠĠĠĠĠ": 1265,
      "kĠ>=Ġx:ĊĠĠĠĠĠĠĠĠĠĠĠĠ": 1266,
      "kãĤĪãĤĬãĤĤå°ıãģķãģĦåĢ¤": 1267,
      "kĠ<Ġx:ĊĠĠĠĠĠĠĠĠĠĠĠĠ": 1268,
      "ãģ¤": 1269,
      "valueĠ*Ġ": 1270,
      "0Ġ>Ġx:ĊĠĠĠĠĠĠĠĠĠĠĠĠ": 1271,
      "åıĸãĤĬãĢģè²łãģ®åĢ¤": 1272,
      "kãĤĴå·®ãģĹå¼": 1273,
      "0Ġ>Ġvalue:ĊĠĠĠĠĠĠĠĠĠĠĠĠ": 1274,
      "0Ġ<Ġvalue:ĊĠĠĠĠĠĠĠĠĠĠĠĠ": 1275,
      "ãĤĴåıĸãģ£ãģ¦ãĢģ": 1276,
      "ãĤĴä¿ĿæĮģãģĹãĢģ": 1277,
      "output[::-1": 1278,
      "kĠ>Ġx:ĊĠĠĠĠĠĠĠĠĠĠĠĠ": 1279,
      "kĠ<Ġvalue:ĊĠĠĠĠĠĠĠĠĠĠĠĠ": 1280,
      "kãĤĪãĤĬãĤĤå¤§ãģįãģĦåĢ¤": 1281,
      "ç«¯kåĢĭ": 1282,
      "ãĤĤãģ®ãģĭãĤīå¤§ãģįãģĦ": 1283,
      "0Ġ==ĠxĠ%": 1284,
      "kãĤĴè¶³": 1285,
      "ãģªãģĮãĤīãĢģ": 1286,
      "list(reversed(xs))ĊĠĠĠĠ": 1287,
      "0Ġ==ĠxĠ%Ġ2": 1288,
      "valueĠ%Ġk:ĊĠĠĠĠĠĠĠĠĠĠĠĠ": 1289,
      "result[::-1": 1290,
      "kãģ®åĢįæķ°ãģłãģĳ": 1291,
      "æŃ£ãģ®åĢ¤ãģłãģĳ": 1292,
      "kãĤĪãĤĬå¤§ãģįãģªåĢ¤": 1293,
      "kĠ<=Ġx:ĊĠĠĠĠĠĠĠĠĠĠĠĠ": 1294,
      "Ġk]ĊĠĠĠĠ#ĠåĲĦè¦ģç´łãĤĴ": 1295,
      "valueĠ%Ġ2:ĊĠĠĠĠĠĠĠĠĠĠĠĠ": 1296,
      "åıĸãĤĬãĢģåĲĦåĢ¤": 1297,
      "éħ": 1298,
      "éħį": 1299,
      "ä¸¦ãģ°ãģĽãģ¦ãĢģ": 1300,
      "åĲĦæķ°ãģ®": 1301,
      "[:k]ĊĠĠĠĠreturnĠresultĊ": 1302,
      "ãĤĴå¼ķãģįç¶ļ": 1303,
      "ãĤ¼ãĥŃãģłãģĳãĤĴæ®ĭãģĻ": 1304,
      "ãģĻãģ¹ãģ¦ãģ®æķ°ãģ®": 1305,
      "æŀ": 1306,
      "Ĳæŀ": 1307,
      "çµĲæŀ": 1308,
      "çµĲæŀľ": 1309,
      "åīįkåĢĭ": 1310,
      "ãģ¶solveéĸ¢æķ°ãĤĴæĽ¸": 1311,
      "ãģĿãĤĮãģŀãĤĮãģ®æķ°": 1312,
      "ãĤĴåıİéĽĨ": 1313,
      "ãģ§ãĢģ": 1314,
      "kãĤĴè¶ħãģĪãĤĭåĢ¤": 1315,
      "[:k]ĊĠĠĠĠreturnĠoutputĊ": 1316,
      "åĽ": 1317,
      "ä¸ĬåĽ": 1318,
      "ä¸ĬåĽŀ": 1319,
      "kãĤĴä¸ĬåĽŀ": 1320,
      "ãĤĴæĭ¾ãģ£ãģ¦ãĢģ": 1321,
      "ãĤĴä¿ĿåŃĺãģĹãģ¦ãĢģ": 1322,
      "ãģĭãĤīkãĤĴå¼ķãģįãĢģ": 1323,
      "]ĊĠĠĠĠresultĠ=Ġ[valueĠ": 1324,
      "ä½ĵ": 1325,
      "))ĊĠĠĠĠreturnĠoutputĊ": 1326,
      "æŃ£è²łãĤĴ": 1327,
      "åħ¨ä½ĵ": 1328,
      "outputĠ=Ġsorted(result": 1329,
      "ãĤĴåĪĩãĤĬåĩºãģĻ": 1330,
      "ãģ»ãģĨãģĭãĤī": 1331,
      "))ĊĠĠĠĠreturnĠresultĊ": 1332,
      "ãĤĴåĪĩãĤĬæĬľãģĦãģ¦ãĢģ": 1333,
      "ãĤĴä½": 1334,
      "ãĤĴæ®ĭãģĹãģ¦ãģĬãģįãĢģ": 1335,
      "resultĠ=Ġsorted(output": 1336,
      "ãĤĴåıĸå¾ĹãģĹãģ¦ãĢģ": 1337,
      "åħ¨ãģ¦ãģ®æķ°": 1338,
      "ĠkĠforĠxĠinĠxs]ĊĠĠĠĠ#Ġ": 1339,
      "Ļ¤": 1340,
      "ãģĭãĤīkãĤĴãģ²": 1341,
      "åħĪéłŃãģ®kåĢĭ": 1342,
      "ãĤĴãģ²ãģ£ãģıãĤĬãģĭãģĪ": 1343,
      "sorted(xs)[::-1": 1344,
      "ãĤĬåĩºãģĹãģ¦ãĢģ": 1345,
      "ãģĭãĤīkãĤĴå·®ãģĹå¼": 1346,
      "ãĤĴèŃĺ": 1347,
      "ãĤĴèŃĺåĪ¥": 1348,
      "åĢ¤ãĤĴéĻįéłĨãģ«": 1349,
      "]ĊĠĠĠĠoutputĠ=Ġ[valueĠ": 1350,
      "ãģłãģĳãĤĴéģ¸ãģ³åĩº": 1351,
      "valueĠ*Ġvalue": 1352,
      "xs:ĊĠĠĠĠĠĠĠĠifĠxĠ%Ġ2Ġ": 1353,
      "ãĤĴéĻ¤": 1354,
      "ãģ®ãģ¿ãĤĴæĬ½åĩºãģĻ": 1355,
      "å¥ĩæķ°ãģłãģĳãĤĴæ®ĭãģĻ": 1356,
      "ãĤģãģ¦ãĢģ": 1357,
      "ãģĹãģ¦ãģĬãģįãĢģ": 1358,
      "ä¸Ĭãģ§ãĢģ": 1359,
      "ãģķãģĽãĢģ": 1360,
      "åħ¨ãģ¦ãģ®è¦ģç´łãĤĴ": 1361,
      "è¦ģç´łãģ«kãĤĴãģĭãģĳ": 1362,
      "æĬ½åĩº": 1363,
      "ãģĿãĤĮãģŀãĤĮãģ®": 1364,
      "ãĤĵãģ§ãĢģ": 1365,
      "äºĮä¹ĹãģĻãĤĭĊĠĠĠĠ": 1366,
      ">Ġk]ĊĠĠĠĠ#Ġ": 1367,
      "ãĤ¼ãĥŃãģ®ãģ¿ãĤĴæ®ĭ": 1368,
      "ľĢ": 1369,
      "ãĤĴæĬľãģįåĩºãģĹãģ¦ãĢģ": 1370,
      "åĢ¤ãĤĴéĻįéłĨãģ«ä¸¦ãģ¹": 1371,
      "ãģ®åĢ¤ãĤĴä¸īåĢį": 1372,
      "ľĢãĤĤ": 1373,
      "ãģŁä¸Ĭãģ§ãĢģ": 1374,
      "Ģī": 1375,
      "éĢī": 1376,
      "İãģĦ": 1377,
      "2åĢįãģ«": 1378,
      "ĽéĢī": 1379,
      "ŃĽéĢī": 1380,
      "ãģĨsolveéĸ¢æķ°ãĤĴæĽ¸": 1381,
      "3åĢįãģĻãĤĭĊĠĠĠĠ": 1382,
      "<Ġk": 1383,
      "åıĸãĤĬåĩºãģĹãģ¦ãĢģ": 1384,
      "åĢ¤ãĤĴæľĢãĤĤ": 1385,
      "kãĤĪãĤĬå°ıãģķãģĦåĢ¤": 1386,
      "ãĤĴçŃĽéĢī": 1387,
      ">Ġk": 1388,
      "åıĸãĤĬãĢģéļĶçķªãģ§": 1389,
      "kãĤĴæ¸ĽãĤīãģĹãģ¦ãĢģ": 1390,
      "ãģ«kãĤĴè¶": 1391,
      "ãģ«kãĤĴè¶³": 1392,
      "resultĠifĠkĠ>=Ġ": 1393,
      "outputĠifĠkĠ<Ġ": 1394,
      "çµĤ": 1395,
      "ãĤĴç¢ºä¿ĿãģĹãģ¦ãĢģ": 1396,
      "ªä¹Ĺ": 1397,
      "ĩªä¹Ĺ": 1398,
      "ãĤĴèĩªä¹Ĺ": 1399,
      "<Ġk]ĊĠĠĠĠ#Ġ": 1400,
      "outputĠifĠkĠ>=Ġ": 1401,
      "resultĠifĠkĠ>Ġ": 1402,
      "outputĠifĠ0Ġ<Ġ": 1403,
      "resultĠifĠ0Ġ<Ġ": 1404,
      "resultĠifĠkĠ<Ġ": 1405,
      "åĲĦæķ°åĢ¤": 1406,
      "éłĨåºıãĤĴéĻį": 1407,
      "2åĢįãģĻãĤĭĊĠĠĠĠ": 1408,
      "output]ĊĠĠĠĠoutput": 1409,
      "outputĠifĠkĠ>Ġ": 1410,
      "ä¸¦ãģ³ãģĭãģĪ": 1411,
      "ãĤĴéģ¸ãĤĵãģ§æ®ĭãģĹãĢģ": 1412,
      "result]ĊĠĠĠĠresult": 1413,
      "outputĠifĠ0Ġ>Ġ": 1414,
      "kãģ§": 1415,
      "å°ıãģķãģĦãĤĤãģ®ãģĭãĤī": 1416,
      ">Ġk]ĊĠĠĠĠreturnĠoutputĊ": 1417,
      "resultĠifĠ0Ġ>Ġ": 1418,
      "ãĤĴåĪĩãĤĬåĩºãģĹãĢģ": 1419,
      "outputĠifĠkĠ<=Ġ": 1420,
      "ç¬¦åı·ãĤĴåıįè»¢ãģĹãĢģ": 1421,
      "result]ĊĠĠĠĠ#Ġ": 1422,
      "resultĠifĠkĠ<=Ġ": 1423,
      "Ġ=Ġ[xĠ*ĠkĠforĠxĠinĠxs": 1424,
      "ãģ¦ãĢģãģĿãģ®å¾Į": 1425,
      "åĬ": 1426,
      ">Ġ0]ĊĠĠĠĠreturnĠoutputĊ": 1427,
      "ãģĹãģ¦æ®ĭãģĹãģ¦ãĢģ": 1428,
      "ãģ¨ãģ£ãģ¦ãĢģ": 1429,
      "ãģŁå¾Įãģ«": 1430,
      "kãĤĴä¹Ĺ": 1431,
      "ãĤĴãģ²ãģ£ãģıãĤĬè¿Ķ": 1432,
      "ãģ¸": 1433,
      "resultĠifĠ0Ġ==ĠxĠ%": 1434,
      "åħĥ": 1435,
      "ãĤĴkãģ§": 1436,
      "æŃ£è²łãĤĴåıįè»¢ãģķãģĽ": 1437,
      "ãģ«kãĤĴæİĽãģĳ": 1438,
      ">Ġ0]ĊĠĠĠĠreturnĠresultĊ": 1439,
      "resultĠifĠxĠ%ĠkĠ==Ġ0": 1440,
      "ãĥ¬": 1441,
      "¯ãĥĪ": 1442,
      "»ãĥ¬": 1443,
      "ãĤ¯ãĥĪ": 1444,
      "ãĤ»ãĥ¬": 1445,
      "ãĤĴãĤ»ãĥ¬": 1446,
      "resultĠifĠxĠ<=Ġk": 1447,
      "ãĤĴãĤ»ãĥ¬ãĤ¯ãĥĪ": 1448,
      "outputĠifĠvalueĠ<=Ġk": 1449,
      "ãĤĴäºĮä¹ĹãģĻ": 1450,
      "0Ġ==Ġx:ĊĠĠĠĠĠĠĠĠĠĠĠĠ": 1451,
      "ãĤĴæĬ½åĩºãģĻ": 1452,
      "ãĤĤãģ®ãģ¸ä¸¦ãģ¹ãģ¦ãĢģ": 1453,
      "åĪĹæĮĻãģĹãģ¦ãĢģ": 1454,
      "x]ĊĠĠĠĠ#ĠåĲĦè¦ģç´łãĤĴ": 1455,
      "ķãģıĊĠĠĠĠoutputĠ=Ġ[xĠ-": 1456,
      "ãģłãģĳãĤĴæ®ĭãģĻãģĵãģ¨": 1457,
      "ãĤĴå¼ķãģįç¶ļãģį": 1458,
      "-value": 1459,
      "valueĠ>Ġ0:ĊĠĠĠĠĠĠĠĠĠĠĠĠ": 1460,
      "åģ¶æķ°ãģłãģĳãĤĴæ®ĭãģĻ": 1461,
      "åħ¨ãģ¦ãģ®éłħçĽ®": 1462,
      "valueĠ>Ġk:ĊĠĠĠĠĠĠĠĠĠĠĠĠ": 1463,
      "output]ĊĠĠĠĠ#Ġ": 1464,
      "outputĠifĠxĠ<Ġ0": 1465,
      "éłĨåºıãĤĴéĢĨè»¢": 1466,
      "åĢ¤ãģ®æŃ£è²ł": 1467,
      "outputĠifĠ0Ġ==ĠvalueĠ%": 1468,
      ">Ġk]ĊĠĠĠĠreturnĠresultĊ": 1469,
      "ãģ«ãģĹãģ¦ãĢģãģĿãģ®å¾Į": 1470,
      "ãģĻãĤĭĊĠĠĠĠresultĠ=Ġ[-": 1471,
      "ãĤĴåĪĩãĤĬæĽ¿ãģĪ": 1472,
      "ãĤ¼ãĥŃãĤĴæĬ½åĩº": 1473,
      "valueĠ<Ġk:ĊĠĠĠĠĠĠĠĠĠĠĠĠ": 1474,
      "*Ġ2ĠforĠvalueĠinĠxs": 1475,
      "outputĠifĠxĠ%ĠkĠ==Ġ0": 1476,
      "éłĨåºıãĤĴåıįè»¢ãģĹãĢģ": 1477,
      "outputĠifĠxĠ==Ġ0": 1478,
      "æĪ": 1479,
      "ķãģıĊĠĠĠĠresultĠ=Ġ[xĠ-": 1480,
      "è¨Īç®Ĺ": 1481,
      "æĪĲ": 1482,
      "ãĤĴåĪĩãĤĬéĽ¢ãģĹãģ¦ãĢģ": 1483,
      "resultĠifĠxĠ==Ġ0": 1484,
      "outputĠifĠvalueĠ==Ġ0": 1485,
      "<Ġk]ĊĠĠĠĠreturnĠoutputĊ": 1486,
      "åĲĦè¦ģç´łãĤĴä¸īåĢį": 1487,
      "kãĤĴåĬł": 1488,
      "æŃ£ãģ®åĢ¤ãģ®ãģ¿": 1489,
      "ãģĻãĤĭĊĠĠĠĠoutputĠ=Ġ[-": 1490,
      "å¤īãģĪ": 1491,
      "å¾Įç«¯kåĢĭ": 1492,
      "outputĠifĠxĠ<=Ġk": 1493,
      "ãĤĴè¨Īç®ĹãģĹãĢģ": 1494,
      "valueĠ<Ġ0:ĊĠĠĠĠĠĠĠĠĠĠĠĠ": 1495,
      "resultĠifĠxĠ>=Ġk": 1496,
      "<Ġk]ĊĠĠĠĠreturnĠresultĊ": 1497,
      "çķĻ": 1498,
      "resultĠifĠvalueĠ<=Ġk": 1499,
      "ãĤĴæ®ĭãģĻãĤĪãģĨãģ«": 1500,
      "è¦ģç´łãģ": 1501,
      "resultĠifĠxĠ%Ġ2Ġ==Ġ0": 1502,
      "łãģ«å¤īãģĪ": 1503,
      "outputĠifĠ0Ġ!=ĠxĠ%Ġ2": 1504,
      "outputĠifĠ0Ġ==ĠxĠ%": 1505,
      "æķ°ãģ®ç¬¦åı·": 1506,
      "resultĠifĠvalueĠ<Ġ0": 1507,
      "Ġ=Ġ[xĠ+ĠkĠforĠxĠinĠxs": 1508,
      "ãĥªãĥ³ãĤ°ãģĹãģ¦ãĢģ": 1509,
      "[xĠforĠxĠinĠ": 1510,
      "éħįåĪĹ": 1511,
      "resultĠifĠxĠ<Ġ0": 1512,
      "åĢ¤ãģ®ç¬¦åı·": 1513,
      "¡Į": 1514,
      "åİ": 1515,
      "åİ»": 1516,
      "[valueĠforĠvalueĠinĠ": 1517,
      "æŃ£è²łãĤĴãģ²ãģ£ãģıãĤĬ": 1518,
      "éłĨãģ«ä¸¦ãģ°ãģĽãģ¦ãĢģ": 1519,
      "resultĠifĠxĠ%Ġ2Ġ!=Ġ0": 1520,
      "resultĠifĠvalueĠ==Ġ0": 1521,
      "æķ°ãģ®æŃ£è²ł": 1522,
      "ãĤĴçķĻ": 1523,
      "ãģŁåĢ¤": 1524,
      "outputĠifĠxĠ>=Ġk": 1525,
      "åŃ": 1526,
      "ãĤĭĊĠĠĠĠoutputĠ=Ġ[xĠ*": 1527,
      "åŃĹ": 1528,
      "«ĺ": 1529,
      "outputĠifĠxĠ%Ġ2Ġ!=Ġ0": 1530,
      "resultĠifĠvalueĠ>=Ġk": 1531,
      "outputĠifĠ0Ġ==ĠxĠ%Ġ2": 1532,
      "ãĤĴé«ĺ": 1533,
      "ãĤīãģ«": 1534,
      "ãĤĴå¼ķãģįåĩºãģĹãģ¦ãĢģ": 1535,
      "åĢ¤ãĤĴé«ĺ": 1536,
      "resultĠifĠ0Ġ==ĠxĠ%Ġ2": 1537,
      "å®": 1538,
      "sorted(xs)ĊĠĠĠĠ": 1539,
      "å®ļ": 1540,
      "ãĤĭĊĠĠĠĠresultĠ=Ġ[xĠ*": 1541,
      "ãĤĴéĢĨãģ«": 1542,
      "¹å®ļ": 1543,
      "ī¹å®ļ": 1544,
      "ãĤĴçī¹å®ļ": 1545,
      "ãģĭãĤīkãĤĴãģ²ãģĦãģ¦ãĢģ": 1546,
      "outputĠifĠxĠ%Ġ2Ġ==Ġ0": 1547,
      "ãģķãĤīãģ«": 1548,
      "outputĠifĠvalueĠ>=Ġk": 1549,
      "éĸ¢æķ°ãĤĴå®Łè£": 1550,
      "[:k]ĊĠĠĠĠ#Ġ": 1551,
      "ä¸¦ãģ³ãĤĴåıįè»¢": 1552,
      "ãĤĴéĻ¤åİ»": 1553,
      "]ĊĠĠĠĠoutputĠ=Ġ[valueĠ*": 1554,
      "ºåĪ¥": 1555,
      "ĮºåĪ¥": 1556,
      "ãģĻãģ¹ãģ¦ãģ®è¦ģç´łãģ®": 1557,
      "ãĤĴæ®ĭãģĹãĢģãģĿãģ®å¾Į": 1558,
      "ãģªãģĦ": 1559,
      "resultĠifĠ0Ġ<Ġvalue": 1560,
      "ãĤĴåĮºåĪ¥": 1561,
      "åıĸãĤĬãĢģkä»¥ä¸Ĭ": 1562,
      "æŃ£ãģ®åĢ¤ãģ®ãģ¿ãĤĴæ®ĭ": 1563,
      "åĪĩãĤĬ": 1564,
      "Ġ=Ġ[xĠ-ĠkĠforĠxĠinĠxs": 1565,
      "ķãģıéĸ¢æķ°solveãĤĴå®Łè£": 1566,
      "outputĠifĠ0Ġ==Ġvalue": 1567,
      "ĬãģĦãģ¦ãĢģ": 1568,
      "åħ¨ãģ¦ãģ®åĢ¤": 1569,
      "éłŃkåĢĭ": 1570,
      "ãĤĴåĪĩãĤĬãģ¨ãģ£ãģ¦ãĢģ": 1571,
      "outputĠifĠvalueĠ<Ġ0": 1572,
      "ãģ¦ãĢģæľĢå¾Įãģ«": 1573,
      "ãģłãģĳãĤĴéģ¸ãģ³ãĢģ": 1574,
      "resultĠifĠ0Ġ==ĠvalueĠ%": 1575,
      "ãĤĴè¨Īç®ĹãģĻ": 1576,
      "]]Ċ": 1577,
      "resultĠifĠ0Ġ!=ĠxĠ%Ġ2": 1578,
      "åıĸãĤĬãĢģåĢ¤ãĤĴæĺĩ": 1579,
      "ãĤĴè¡Į": 1580,
      "[0:k]ĊĠĠĠĠresult": 1581,
      "ãĤĴéģ¸ãģ³åĩº": 1582,
      "ãĤĭĊĠĠĠĠresultĠ=Ġ[xĠ+": 1583,
      "ãģĻãģ¹ãģ¦ãģ®è¦ģç´ł": 1584,
      "[:k]ĊĠĠĠĠresult": 1585,
      "ãĤĴæ®ĭãģĹãģªãģĮãĤīãĢģ": 1586,
      "[0:k]ĊĠĠĠĠ#Ġ": 1587,
      "[::2]ĊĠĠĠĠ#Ġ": 1588,
      "[0:k]ĊĠĠĠĠoutput": 1589,
      "outputĠifĠ0Ġ>Ġvalue": 1590,
      "resultĠifĠkĠ<Ġvalue": 1591,
      "[:k]ĊĠĠĠĠoutput": 1592,
      "çµ¶å¯¾åĢ¤ãĤĴåıĸ": 1593,
      "outputĠifĠ0Ġ<Ġvalue": 1594,
      "ãĤĭĊĠĠĠĠoutputĠ=Ġ[xĠ+": 1595,
      "valueĠ-Ġk]ĊĠĠĠĠ#Ġ": 1596,
      "*Ġk]ĊĠĠĠĠ#Ġ": 1597,
      "ãģ¶solveéĸ¢æķ°ãĤĴå®Łè£": 1598,
      "ľæĪĲ": 1599,
      "outputĠifĠkĠ<Ġvalue": 1600,
      "ãģ«ãģĹãģ¦ãģĭãĤī": 1601,
      "resultĠifĠ0Ġ==Ġvalue": 1602,
      "åıĸãĤĬãĢģçı¾åľ¨ãģ®": 1603,
      "resultĠifĠkĠ>=Ġvalue": 1604,
      "ãĤĬåĩºãģĹãĢģ": 1605,
      "çĲ": 1606,
      "çĲĨ": 1607,
      "åıİéĽĨ": 1608,
      "åĢ¤ãĤĴå¹³æĸ¹": 1609,
      "ãĤĴä½ľæĪĲ": 1610,
      "[-k:]ĊĠĠĠĠ#Ġ": 1611,
      "valueĠ*Ġk]ĊĠĠĠĠ#Ġ": 1612,
      "ãĤĴä¿ĿåŃĺãģĹãĢģ": 1613,
      "valueĠ-Ġk": 1614,
      "å¥ĩæķ°ãģłãģĳ": 1615,
      "-Ġk]ĊĠĠĠĠ#Ġ": 1616,
      "[0::2]ĊĠĠĠĠ#Ġ": 1617,
      "resultĠifĠ0Ġ>Ġvalue": 1618,
      "ãģ¦æ®ĭãģĹãģ¦ãĢģ": 1619,
      "xsĠifĠvalueĠ>Ġ0": 1620,
      "xsĠifĠvalueĠ<Ġ0": 1621,
      "]ĊĠĠĠĠresultĠ=Ġ[valueĠ*": 1622,
      "outputĠifĠkĠ>=Ġvalue": 1623,
      "ãģłãģĳãĤĴæ®ĭãģĹ": 1624,
      "ãģªãģĦåĢ¤": 1625,
      "[-k::]ĊĠĠĠĠ#Ġ": 1626,
      "outputĠifĠkĠ>Ġvalue": 1627,
      "ãģķãģ«": 1628,
      "kãĤĪãĤĬãĤĤå°ıãģķãģªåĢ¤": 1629,
      "åıĸãĤĬãĢģæľ«å°¾kåĢĭ": 1630,
      "resultĠifĠkĠ>Ġvalue": 1631,
      "ãĤĴéģ¸ãģ³ãĢģ": 1632,
      "åģ¶æķ°ãģ®ãģ¿ãĤĴæ®ĭ": 1633,
      "xsĠifĠvalueĠ<=Ġk": 1634,
      "*Ġk": 1635,
      "ķãģįãĢģ": 1636,
      "åĲĦè¦ģç´łãĤĴäºĮä¹ĹãģĻ": 1637,
      "ç¬¦åı·ãĤĴåıįè»¢ãģĻ": 1638,
      "İãģĦéłĨãģ«ä¸¦ãģ¹ãģ¦ãĢģ": 1639,
      "æı": 1640,
      "æıĽ": 1641,
      "-Ġk": 1642,
      "kä»¥ä¸Ĭãģ®ãĥĩãĥ¼ãĤ¿": 1643,
      "xsĠifĠ0Ġ==ĠvalueĠ%Ġ2": 1644,
      "ãģ®æķ°ãĤĴä¸īåĢį": 1645,
      "ãģ®ãģ¿ãĤĴæĬ½åĩºãģĹãĢģ": 1646,
      "åħ¨ãģ¦": 1647,
      "ãģ®è¦ģç´ł": 1648,
      "[-k:]ĊĠĠĠĠoutput": 1649,
      "åıĸãĤĬãĢģåħĪéłŃkåĢĭ": 1650,
      "ãĤĴèĩªä¹ĹãģĹãģ¦ãĢģ": 1651,
      "ãģ«çµŀãģ£ãģ¦ãĢģ": 1652,
      "outputĠifĠkĠ<=Ġvalue": 1653,
      "xs:ĊĠĠĠĠĠĠĠĠifĠkĠ>=Ġ": 1654,
      "xs]ĊĠĠĠĠ#ĠåĲĦè¦ģç´łãĤĴ": 1655,
      "[-k:]ĊĠĠĠĠresult": 1656,
      "valueĠ*Ġk": 1657,
      "æĭ¾": 1658,
      "outputĠ=Ġoutput[::-1": 1659,
      "ãĤį": 1660,
      "å¥ĩæķ°ãģ®ãģ¿ãĤĴæ®ĭ": 1661,
      "resultĠifĠkĠ<=Ġvalue": 1662,
      "xsĠifĠvalueĠ==Ġ0": 1663,
      "Ĵãģ«": 1664,
      "åģ¶æķ°ãģłãģĳãĤĴæĬ½åĩº": 1665,
      "çµ¶å¯¾åĢ¤ãĤĴå": 1666,
      "xsĠifĠ0Ġ==ĠvalueĠ%": 1667,
      "¤äº": 1668,
      "äº¤äº": 1669,
      "éģ¸ãģ£ãģ¦ãĢģ": 1670,
      "äº¤äºĴãģ«": 1671,
      "kãĤĴä¸ĬåĽŀãĤĭåĢ¤": 1672,
      "ãĤĴ2åĢįãģ«ãģĻ": 1673,
      "åĢ¤ãģ®éłĨåºıãĤĴéĻį": 1674,
      "2åĢįãģ«ãģĹãģ¦ãĢģ": 1675,
      "ãģĻãģ¹ãģ¦": 1676,
      "ãģĿãĤĮãĤī": 1677,
      "returnĠ[xĠforĠxĠinĠ": 1678,
      "+Ġk": 1679,
      "valueĠ+Ġk": 1680,
      "ãģ£ãģŁåĢ¤": 1681,
      "åł": 1682,
      "ãĤĴè£": 1683,
      "ãĤĴè£ı": 1684,
      "æĥ": 1685,
      "ħåł": 1686,
      "ãĤĴè£ıè¿Ķ": 1687,
      "æĥħåł": 1688,
      "æĥħåł±": 1689,
      "sorted(output)ĊĠĠĠĠ": 1690,
      "kãĤĴä¸ĬåĽŀãģ£ãģŁåĢ¤": 1691,
      "åıĸãĤĬãĢģåģ¶æķ°ãģłãģĳ": 1692,
      "xsĠifĠ0Ġ!=ĠvalueĠ%Ġ2": 1693,
      "resultĠ=Ġresult[::-1": 1694,
      "ãĤģãĤĭsolveéĸ¢æķ°ãĤĴæĽ¸": 1695,
      "xsĠifĠvalueĠ%ĠkĠ==Ġ0": 1696,
      "åıĸãĤĬãĢģåĲĦæķ°åĢ¤": 1697,
      "ĬãģĪãĤĭåĢ¤": 1698,
      "result]ĊĠĠĠĠoutput": 1699,
      "xĠ%Ġk:ĊĠĠĠĠĠĠĠĠĠĠĠĠ": 1700,
      "kãĤĴè¶ĬãģĪãĤĭåĢ¤": 1701,
      "xsĠifĠvalueĠ>=Ġk": 1702,
      "sorted(result)ĊĠĠĠĠ": 1703,
      "[-k::]ĊĠĠĠĠoutput": 1704,
      "xsĠifĠvalueĠ%Ġ2Ġ==Ġ0": 1705,
      "0ãĤĪãĤĬ": 1706,
      "[-k::]ĊĠĠĠĠresult": 1707,
      "ãĤĴä¿Ŀãģ¤": 1708,
      "ãģĭãĤīkãĤĴå¼ķãģĦ": 1709,
      "ä¸¦ãģ³ãģĭãģĪãģ¦ãĢģ": 1710,
      "outputĠ=Ġxs[::-1": 1711,
      "+Ġk]ĊĠĠĠĠ#Ġ": 1712,
      "[0::2]ĊĠĠĠĠresult": 1713,
      "ķãģįç®Ĺ": 1714,
      "xĠ%Ġ2:ĊĠĠĠĠĠĠĠĠĠĠĠĠ": 1715,
      "kãĤĴåĬłç®Ĺ": 1716,
      "#ĠkãĤĪãĤĬå¤§ãģįãģĦ": 1717,
      "ãĤ¼ãĥŃãģłãģĳãĤĴæ®ĭ": 1718,
      "ãĤĴkãģ§æ": 1719,
      "ãĤĴkãģ§æ¸ĽãĤī": 1720,
      "[0::2]ĊĠĠĠĠoutput": 1721,
      "ãĤĴéģ¸ãĤĵãģ§åĩº": 1722,
      "ãĤĴæ®ĭãģĹãģŁå¾ĮãĢģ": 1723,
      "éłĨåºıãĤĴéĢĨãģ«": 1724,
      "ãĤĴåıĸå¾ĹãģĻ": 1725,
      "å¤ī": 1726,
      "2åĢįãģ«ãģĻ": 1727,
      "xsĠifĠvalueĠ%Ġ2Ġ!=Ġ0": 1728,
      "[::2]ĊĠĠĠĠoutput": 1729,
      "#Ġkãģ®åĢįæķ°": 1730,
      "xs:ĊĠĠĠĠĠĠĠĠifĠkĠ<=Ġ": 1731,
      "output]ĊĠĠĠĠresult": 1732,
      "æľĢå¾Įãģ®kåĢĭ": 1733,
      "resultĠ=Ġxs[::-1": 1734,
      "æľĢå¾ĮkåĢĭ": 1735,
      "ãĤĴéģ¸åĪ¥": 1736,
      "ãĤĴåıİéĽĨãģĹãģ¦ãĢģ": 1737,
      "valueĠforĠvalueĠinĠxs": 1738,
      "ıãĤĬ": 1739,
      "ãĤıãĤĬ": 1740,
      "å¥ĩæķ°ãĤĴæĬ½åĩº": 1741,
      "çµĤãĤıãĤĬ": 1742,
      "è¦ģç´łãĤĴæ®ĭãģĹãĢģ": 1743,
      "*Ġ3ĠforĠvalueĠinĠxs": 1744,
      "valueĠ+Ġk]ĊĠĠĠĠ#Ġ": 1745,
      "[xĠ": 1746,
      "ãĤĴæĬ½åĩºãģĹãģŁå¾ĮãĢģ": 1747,
      "çµĤãĤıãĤĬãģĭãĤīkåĢĭ": 1748,
      "#Ġkä»¥ä¸ĭãģ®åĢ¤": 1749,
      "å¤īæıĽ": 1750,
      "ãģłãģĳãĤĴãĥķãĤ£ãĥ«ãĤ¿": 1751,
      "åıĸãĤĬãĢģæŃ£ãģ®æķ°": 1752,
      "ãģĹãģ¦ãĢģkä»¥ä¸ĭãģ®åĢ¤": 1753,
      "[::2]ĊĠĠĠĠresult": 1754,
      "åıĸãĤĬãĢģåħĪéłŃãģ®kåĢĭ": 1755,
      "łãģ«å¤īãģĪãģ¦ãĢģ": 1756,
      "ãĤĴåĪĩãĤĬæĽ¿ãģĪãģ¦ãĢģ": 1757,
      "ãĤĭĊĠĠĠĠ#Ġ": 1758,
      "åĢ¤ãģĮ": 1759,
      "ãģĹãģ¦ãĢģkãģ®åĢįæķ°": 1760,
      "outputĠ=Ġ[valueĠ": 1761,
      "ãģ®ãģ¿ãĤĴä¿ĿæĮģãģĻ": 1762,
      "ãģĿãģ®çµĲæŀľ": 1763,
      "åĬłãģ": 1764,
      "resultĠ=Ġ[valueĠ": 1765,
      "ãģĹãģ¦æ®ĭãģĹãĢģ": 1766,
      "åĢ¤ãĤĴæľĢãĤĤä½": 1767,
      "ãĤĴæĺĩ": 1768,
      "#ĠkãĤĪãĤĬå°ıãģķãģĦ": 1769,
      "kåĢį": 1770,
      "kä»¥ä¸Ĭãģ®ãĤĤãģ®": 1771,
      "è¦ģç´łãĤĴä¿Ŀ": 1772,
      "ãģłãģĳãĤĴæ®ĭãģĻĊĠĠĠĠ#Ġ": 1773,
      "åıĸãĤĬãĢģæķ°åĪĹãģ®": 1774,
      "åĢ¤ãĤĴä½": 1775,
      "ãģ®çµ¶å¯¾åĢ¤ãĤĴæ±ĤãĤģ": 1776,
      "åĲĦåħĥ": 1777,
      "ãĥªãĥ³ãĤ°ãģĹãĢģ": 1778,
      "ãģĿãĤĮãģŀãĤĮãģ®éłħçĽ®": 1779,
      "ãĤĴçķĻãĤģãģ¦ãĢģ": 1780,
      "ãĤ¼ãĥŃãģłãģĳãĤĴæĬ½åĩº": 1781,
      "kä»¥ä¸Ĭãģ®éłħçĽ®": 1782,
      "ãĤĴåĪĨãģĳãģ¦ãĢģ": 1783,
      "åĢ¤ãĤĴéĻįéłĨãģ«æķ´": 1784,
      "#Ġkä»¥ä¸Ĭãģ®åĢ¤": 1785,
      "xsĠifĠ0Ġ<Ġvalue": 1786,
      "0ãĤĪãĤĬå°ıãģķãģĦåĢ¤": 1787,
      "x]ĊĠĠĠĠ#ĠkãĤĪãĤĬ": 1788,
      "ãĤĤãģ®ãģ¸ä¸¦ãģ¹": 1789,
      "¨ãģĹãģ¦ãĢģ": 1790,
      "ãĤĴèŃĺåĪ¥ãģĹãģ¦ãĢģ": 1791,
      "ãģķãģ«ãģĹãĢģ": 1792,
      "éļĶçķªãģ§åĪĩãĤĬ": 1793,
      "ãĤĭéĸ¢æķ°ãĤĴå®Łè£": 1794,
      "åĲĦè¦ģç´łãģ«kãĤĴä¹Ĺ": 1795,
      "ãģĳãģ¦ãĢģ": 1796,
      "xsĠifĠ0Ġ==Ġvalue": 1797,
      "è²łãģ®åĢ¤ãģ®ãģ¿ãĤĴæ®ĭ": 1798,
      "çĶ": 1799,
      "æľī": 1800,
      "ãĤĴä¿Ŀæľī": 1801,
      "¡çĶ": 1802,
      "İ¡çĶ": 1803,
      "åıĸãĤĬãĢģéļĶçķªãģ«": 1804,
      "xsĠifĠkĠ>=Ġvalue": 1805,
      "output:Ġlist[int]Ġ=Ġ[-": 1806,
      "è»¢ãģķãģĽãģ¦ãĢģ": 1807,
      "ãģ®ãģ¿ãĤĴæ®ĭãģĹãģ¦ãĢģ": 1808,
      "ãĤĴæİ¡çĶ": 1809,
      "value)ĠforĠvalueĠinĠxs": 1810,
      "ãģĿãģ®åĢ¤": 1811,
      "ãĤ¼ãĥŃãģłãģĳ": 1812,
      "xsĠifĠ0Ġ>Ġvalue": 1813,
      "ãĤĴä¸īåĢįãģĻ": 1814,
      "åıĸãĤĬãĢģåĲĦæķ°ãģ®": 1815,
      "ãģ®ãģ¿ãĤĴéģ¸ãĤĵãģ§ãĢģ": 1816,
      "xsĠifĠkĠ>Ġvalue": 1817,
      "åģ¶æķ°ãģłãģĳãĤĴæ®ĭ": 1818,
      "ķãģįãĢģãģĿãģ®å¾Į": 1819,
      "Ġ=Ġ[xĠ*Ġ3ĠforĠxĠinĠxs": 1820,
      "kä»¥ä¸Ĭãģ®åĢ¤ãĤĴæ®ĭ": 1821,
      "ãĤģãģ®": 1822,
      "Ġ=Ġ[-xĠforĠxĠinĠxs": 1823,
      "sorted(xs)ĊĠĠĠĠ#Ġ": 1824,
      "ãģ¦è¨Īç®Ĺ": 1825,
      "ãĤģãĤĭ": 1826,
      "åĲĦæķ°ãģ®çµ¶å¯¾åĢ¤": 1827,
      "-Ġk]ĊĠĠĠĠreturnĠoutputĊ": 1828,
      "ãģŁå¾Įãģ«ãĢģ": 1829,
      "result:Ġlist[int]Ġ=Ġ[-": 1830,
      "xsĠifĠkĠ<Ġvalue": 1831,
      "ãĤĴå¼ķãģįç¶ļãģĦ": 1832,
      "-Ġk]ĊĠĠĠĠreturnĠresultĊ": 1833,
      ">Ġk]ĊĠĠĠĠoutput": 1834,
      "çļ": 1835,
      "å¾ĮãĢģ": 1836,
      "çļĦ": 1837,
      "å°ı": 1838,
      "éłĨåºıãĤĴéĢĨãģ«ãģĹãĢģ": 1839,
      "ãĤĴåĪĨéĽ¢": 1840,
      "çµ¶å¯¾åĢ¤ãĤĴè¨Īç®ĹãģĻ": 1841,
      "éĢĨ": 1842,
      "ãģĿãģ®ä¸ŃãģĭãĤīå¥ĩæķ°": 1843,
      "Ġ=Ġ[xĠ*Ġ2ĠforĠxĠinĠxs": 1844,
      "ãģĻãģ¹ãģ¦ãģ®è¦ģç´łãģ«": 1845,
      "åĢ¤ãĤĴå°ıãģķãģª": 1846,
      "ãģ£ãģ¦ãģĭãĤīãĢģ": 1847,
      "åĢ¤ãĤĴé«ĺãĤģãĤĭ": 1848,
      "ķãģısolveéĸ¢æķ°ãĤĴå®Łè£": 1849,
      "ãģ«å¤īæıĽ": 1850,
      "*Ġ3]ĊĠĠĠĠreturnĠoutputĊ": 1851,
      "ãģŁãĤģãģ®": 1852,
      "ãĤĴéĢĨãģ«ãģķãģĽãģ¦ãĢģ": 1853,
      "åĲĦè¦ģç´łãģ«kãĤĴè¶³": 1854,
      "ãģ«kãĤĴä¹Ĺç®ĹãģĹãģ¦ãĢģ": 1855,
      "åĲĦè¦ģç´ł": 1856,
      "å¾ĹãģĻ": 1857,
      ">Ġk]ĊĠĠĠĠresult": 1858,
      "åıĸãĤĬåĩº": 1859,
      "åĢ¤ãĤĴå¤§ãģįãģĦéłĨãģ«": 1860,
      "¹¶": 1861,
      "å¹¶": 1862,
      "ãĤĴæ®ĭãģĹãģªãģĮãĤī": 1863,
      "çļĦãģ«": 1864,
      "¤§å°ı": 1865,
      "çµĤçļĦãģ«": 1866,
      "è¦ģç´łãĤĴäºĮä¹Ĺ": 1867,
      "ãĤĭãģĵãģ¨": 1868,
      "ãĤĴéĢĨè»¢": 1869,
      "æľĢçµĤçļĦãģ«": 1870,
      "æŃ£è²łãĤĴéĢĨ": 1871,
      "åıĸãĤĬãĢģè¦ģç´łãģ®": 1872,
      "*Ġk]ĊĠĠĠĠreturnĠresultĊ": 1873,
      "åĲĦéłħçĽ®ãģ«kãĤĴãģĭãģĳ": 1874,
      "ãģįåĩºãģĹãģ¦ãĢģ": 1875,
      "ãģ«ãģĹãģ¦ãģĭãĤīãĢģ": 1876,
      "ãģķãģĽãĢģãģĿãģ®å¾Į": 1877,
      "*Ġk]ĊĠĠĠĠreturnĠoutputĊ": 1878,
      "ãģ¾ãģ¾": 1879,
      "åĲĦåĢ¤ãģĭãĤī": 1880,
      "ĭãģ¤": 1881,
      "Ġ=Ġ[abs(x)ĠforĠxĠinĠxs": 1882,
      "ä¸¦ãģ³ãĤĴéĢĨãģ«ãģĹãĢģ": 1883,
      "ħãģ®": 1884,
      "ãĤĴè¦": 1885,
      "ãĤĴè¦ĭãģ¤": 1886,
      "ãĥªãĤ¹ãĥĪãĤĴéĢĨ": 1887,
      "ãģ«ä¸¦ãģ¹ãģ¦ãĢģ": 1888,
      "¤ľ": 1889,
      "ãĤĴæ¤ľ": 1890,
      "outputĠifĠvalueĠ>Ġ0": 1891,
      "-value]ĊĠĠĠĠ#Ġ": 1892,
      "åıĸãĤĬãĢģåīįkåĢĭ": 1893,
      "*Ġ3]ĊĠĠĠĠreturnĠresultĊ": 1894,
      "outputĠifĠxĠ>Ġ0": 1895,
      "<Ġk]ĊĠĠĠĠresult": 1896,
      "ãģĹãģ¦ãĢģkæľªæºĢãģ®åĢ¤": 1897,
      "ãĤĴè£ıè¿ĶãģĹãĢģ": 1898,
      "ãĤĴæŃ£": 1899,
      "æĭ¾ãģ£ãģ¦ãĢģ": 1900,
      "ãĤĴæŃ£è²": 1901,
      "æķ°ãģ®ç¬¦åı·ãĤĴåıįè»¢": 1902,
      "åĢ¤ãģ®ç¬¦åı·ãĤĴéĢĨè»¢": 1903,
      "]ĊĠĠĠĠoutputĠ=Ġ[valueĠ-": 1904,
      "éĽĨãĤģãģ¦ãĢģ": 1905,
      "solveéĸ¢æķ°ãĤĴä½ľæĪĲ": 1906,
      "returnĠ[xĠ": 1907,
      "æķ°ãģ®ç¬¦åı·ãĤĴæŃ£è²": 1908,
      "resultĠifĠvalueĠ>Ġ0": 1909,
      "ãģ»ãģĨãģĭãĤīä¸¦ãģ¹": 1910,
      "ãĤĭåĢ¤ãĤĴæ®ĭãģĹãģ¦ãĢģ": 1911,
      "xsĠifĠkĠ<=Ġvalue": 1912,
      "ãĤĴçµŀ": 1913,
      "resultĠifĠxĠ>Ġ0": 1914,
      "æĵ": 1915,
      "įä½": 1916,
      "ľãĤĴè¡Į": 1917,
      "ãģ®æŃ£è²": 1918,
      "ç¬¦åı·ãģ®æŃ£è²": 1919,
      "æĵįä½": 1920,
      "æĵįä½ľãĤĴè¡Į": 1921,
      "æķ°ãģ®æŃ£è²łãĤĴåıįè»¢": 1922,
      "Ŀãģ®": 1923,
      "ãĤĴåĢĭ": 1924,
      "łãģĳ": 1925,
      "åĪ¥ãģ«": 1926,
      "ãģ¸ä¸¦ãģ¹ãģ¦ãĢģ": 1927,
      "è¦ģç´łãģłãģĳ": 1928,
      "ãĤĴåĢĭåĪ¥ãģ«": 1929,
      "kä»¥ä¸Ĭãģ®æĥħåł±": 1930,
      "åĢ¤ãĤĴå¹³æĸ¹ãģĹãģ¦ãĢģ": 1931,
      "outputĠ=Ġresult[::-1": 1932,
      "åĢ¤ãģ®ç¬¦åı·ãĤĴåıįè»¢": 1933,
      "ãģĻãģ¹ãģ¦ãģ®æķ°åŃĹ": 1934,
      "*Ġ2]ĊĠĠĠĠreturnĠoutputĊ": 1935,
      "kãģ®åĢįæķ°ãģłãģĳãĤĴæ®ĭ": 1936,
      "åıĸãĤĬãĢģçµ¶å¯¾åĢ¤": 1937,
      "]ĊĠĠĠĠresultĠ=Ġ[valueĠ-": 1938,
      "<Ġk]ĊĠĠĠĠoutput": 1939,
      "ãģ¨ãĢģ": 1940,
      "resultĠ=Ġoutput[::-1": 1941,
      "+Ġk]ĊĠĠĠĠreturnĠresultĊ": 1942,
      "åĲĦéłħçĽ®ãģĭãĤīkãĤĴå¼": 1943,
      "kãĤĴãģ²ãģĦãģ¦ãĢģ": 1944,
      "*Ġ2]ĊĠĠĠĠreturnĠresultĊ": 1945,
      "]ĊĠĠĠĠresultĠ=Ġ[xĠ-": 1946,
      "valueĠ*Ġ3]ĊĠĠĠĠ#Ġ": 1947,
      "è²łãģ®æķ°ãģ®ãģ¿ãĤĴæ®ĭ": 1948,
      "¦çĲĨ": 1949,
      "ãĤĭæĵįä½ľãĤĴè¡Į": 1950,
      "ãĤĭãĢģ": 1951,
      "[xĠforĠxĠinĠxsĠifĠ": 1952,
      "å°ıãģķãģĦéłĨãģ«ä¸¦ãģ¹": 1953,
      "ãĤĴéĻ¤åİ»ãģĹãĢģ": 1954,
      "éłĨåºıãĤĴéĢĨãģ«ãģĻ": 1955,
      "åıĸãĤĬãĢģæķ°": 1956,
      "]ĊĠĠĠĠresultĠ=Ġ[-": 1957,
      "]ĊĠĠĠĠoutputĠ=Ġ[-": 1958,
      "+Ġk]ĊĠĠĠĠreturnĠoutputĊ": 1959,
      "è»¢ãģķãģĽ": 1960,
      "kä»¥ä¸Ĭãģ®è¦ģç´ł": 1961,
      "output[0:k": 1962,
      "]ĊĠĠĠĠoutputĠ=Ġ[abs(": 1963,
      "ķãģĦãģ¦ãģĭãĤīãĢģ": 1964,
      "ãģĹãģ¦ãĢģå¥ĩæķ°": 1965,
      "åħĪç«¯kåĢĭ": 1966,
      "]ĊĠĠĠĠoutputĠ=Ġ[xĠ*": 1967,
      "ãģĹãģ¦è¨Īç®Ĺ": 1968,
      "]ĊĠĠĠĠoutputĠ=Ġ[xĠ-": 1969,
      "åĩ¦çĲĨ": 1970,
      "ãģĻãģĵãģ¨": 1971,
      "éĸĭ": 1972,
      "ãģ®åĢ¤ãĤĴ3åĢį": 1973,
      "*Ġ2]ĊĠĠĠĠ#Ġ": 1974,
      "éļĶéĸĭ": 1975,
      "xs]ĊĠĠĠĠ#Ġè²łãģ®": 1976,
      "è¦ģç´łãĤĴ2åĢį": 1977,
      ")[::-1]ĊĠĠĠĠ#Ġ": 1978,
      "ãĤĤãģ®ãģĭãĤīå°ıãģķãģĦ": 1979,
      "ãĤĴçŃĽéĢīãģĹãĢģ": 1980,
      "ãĤĴäºĮä¹ĹãģĹãģ¦ãģĭãĤī": 1981,
      "éļĶéĸĭãģĹãģ¦": 1982,
      "åĬĽ": 1983,
      "ãģĻéĸ¢æķ°solveãĤĴå®Łè£": 1984,
      "æį": 1985,
      "*Ġx]ĊĠĠĠĠ#Ġ": 1986,
      "İãģĦéłĨãģ«ä¸¦ãģ¹": 1987,
      "xs]ĊĠĠĠĠ#ĠæŃ£ãģ®åĢ¤": 1988,
      "ãĤĴéģ¸ãĤĵãģ§åĩºåĬĽ": 1989,
      "ãģĭãĤīå°ıãģķãģĦåĢ¤": 1990,
      "éłĨåºıãĤĴåıį": 1991,
      "è¦ģç´łãģ«kãĤĴä¹Ĺ": 1992,
      "ãĤĴåıĸæį": 1993,
      "åıĸãĤĬãĢģkãĤĴ": 1994,
      "]ĊĠĠĠĠresultĠ=Ġ[xĠ*": 1995,
      "ç®ĹãģĻ": 1996,
      "åıį": 1997,
      "åıİéĽĨãģĹãģ¦ãĢģ": 1998,
      "åħ¨ãģ¦ãģ®æķ°ãģ®": 1999,
      "ãĤįãģĭãĤīkåĢĭãĤĴåıĸ": 2000,
      "]ĊĠĠĠĠresultĠ=Ġ[abs(": 2001,
      "]ĠifĠxĠ": 2002,
      "*Ġ3]ĊĠĠĠĠ#Ġ": 2003,
      "ä¸īåĢįãģĹãģ¦ãĢģ": 2004,
      "Ĺãģ¦ãĢģ": 2005,
      "resultĠ=Ġ[valueĠ*": 2006,
      "2åĢįãģ«ãģĹãģ¦ãģĭãĤīãĢģ": 2007,
      "xs]ĊĠĠĠĠ#Ġåģ¶æķ°": 2008,
      "ãĢħãģ®": 2009,
      "åĢĭãĢħãģ®": 2010,
      "kãĤĪãĤĬå°": 2011,
      "ãĥªãĤ¹ãĥĪãĤĴéĢĨãģķãģ«": 2012,
      "valueĠ*Ġ2]ĊĠĠĠĠ#Ġ": 2013,
      "è¦ģç´łãĤĴåıĸ": 2014,
      "xs]ĊĠĠĠĠ#ĠãĤ¼ãĥŃ": 2015,
      "ãĤĴæ®ĭãģĹç¶ļ": 2016,
      "è²łãģ®æķ°ãģ«çµŀ": 2017,
      "]ĠifĠvalueĠ": 2018,
      "åĬłãģĹãģ¦ãĢģ": 2019,
      "¯İ": 2020,
      "æ¯İ": 2021,
      "result[0:k": 2022,
      "è¦ģç´łæ¯İ": 2023,
      "]ĊĠĠĠĠresultĠ=Ġ[xĠ+": 2024,
      "valueĠ*Ġvalue]ĊĠĠĠĠ#Ġ": 2025,
      "ãģ«æ": 2026,
      "ãģ®ãģ¿ãĤĴéģ¸ãĤĵãģ§": 2027,
      "ãģŁçµĲæŀľ": 2028,
      "ãĤĴéģ¸ãģ³åĩºãģĹãĢģ": 2029,
      "]ĊĠĠĠĠresultĠ=Ġ[valueĠ+": 2030,
      "éģ¸ãģ¶solveéĸ¢æķ°ãĤĴæĽ¸": 2031,
      "ãģ¬": 2032,
      "åıĸãĤĬãĢģå°ıãģķãģĦ": 2033,
      "è¦ģç´łåħ¨ãģ¦": 2034,
      "kä»¥ä¸Ĭãģ§ãģĤãĤĭãĤĤãģ®": 2035,
      "ãĤĴæ±ĤãĤģãĢģãģĿãģ®å¾Į": 2036,
      "åĢ¤ãĤĴé«ĺãģĦ": 2037,
      "¼ç´": 2038,
      "ł¼ç´": 2039,
      "outputĠ=Ġ[valueĠ*": 2040,
      "ãģ¦ãģĦ": 2041,
      "ł¼ç´į": 2042,
      "æķ°ãģ«æ": 2043,
      "]ĊĠĠĠĠoutputĠ=Ġ[xĠ+": 2044,
      "[:k]ĊĠĠĠĠ#ĠåĲĦè¦ģç´łãĤĴ": 2045,
      "æķ°ãģ«æł¼ç´į": 2046,
      "ãģĿãģ®ãģ¾ãģ¾": 2047
    },
    "merges": [
      [
        "Ġ",
        "Ġ"
      ],
      [
        "ã",
        "ģ"
      ],
      [
        "ã",
        "Ĥ"
      ],
      [
        "ĠĠ",
        "ĠĠ"
      ],
      [
        "Ċ",
        "ĠĠĠĠ"
      ],
      [
        "u",
        "t"
      ],
      [
        "i",
        "n"
      ],
      [
        "ãĤ",
        "Ĵ"
      ],
      [
        "æ",
        "ķ"
      ],
      [
        "r",
        "e"
      ],
      [
        "=",
        "Ġ"
      ],
      [
        "in",
        "t"
      ],
      [
        "ã",
        "Ģ"
      ],
      [
        "æķ",
        "°"
      ],
      [
        "]",
        "ĊĠĠĠĠ"
      ],
      [
        "l",
        "t"
      ],
      [
        "s",
        "u"
      ],
      [
        "re",
        "su"
      ],
      [
        "resu",
        "lt"
      ],
      [
        "o",
        "ut"
      ],
      [
        "p",
        "ut"
      ],
      [
        "out",
        "put"
      ],
      [
        "=Ġ",
        "["
      ],
      [
        "x",
        "s"
      ],
      [
        "i",
        "s"
      ],
      [
        "l",
        "is"
      ],
      [
        "lis",
        "t"
      ],
      [
        "a",
        "l"
      ],
      [
        "u",
        "e"
      ],
      [
        "ł",
        "ãģ"
      ],
      [
        "Ġ",
        "list"
      ],
      [
        "[",
        "int"
      ],
      [
        "Ġlist",
        "[int"
      ],
      [
        "Ġlist[int",
        "]"
      ],
      [
        "v",
        "al"
      ],
      [
        "val",
        "ue"
      ],
      [
        "ãĢ",
        "ģ"
      ],
      [
        "å",
        "Ģ"
      ],
      [
        "ã",
        "ĥ"
      ],
      [
        "å",
        "ı"
      ],
      [
        "o",
        "r"
      ],
      [
        "ãģ",
        "¦"
      ],
      [
        "x",
        "Ġ"
      ],
      [
        ":",
        "ĊĠĠĠĠ"
      ],
      [
        "value",
        "Ġ"
      ],
      [
        "f",
        "Ġ"
      ],
      [
        "f",
        "or"
      ],
      [
        "for",
        "Ġ"
      ],
      [
        "in",
        "Ġ"
      ],
      [
        "ãĤĴ",
        "æ"
      ],
      [
        "Ġ",
        "=Ġ["
      ],
      [
        "v",
        "e"
      ],
      [
        "ãģ",
        "Ħ"
      ],
      [
        "ãģ",
        "łãģ"
      ],
      [
        "o",
        "l"
      ],
      [
        "ol",
        "ve"
      ],
      [
        "s",
        "olve"
      ],
      [
        "Ġ",
        "k"
      ],
      [
        ":",
        "Ġlist[int]"
      ],
      [
        "æķ",
        "´"
      ],
      [
        "æķ´",
        "æķ°"
      ],
      [
        "ãģ",
        "®"
      ],
      [
        "ãģ",
        "Ļ"
      ],
      [
        "ãģ",
        "Ĺ"
      ],
      [
        "åĢ",
        "¤"
      ],
      [
        "ãĤ",
        "ĭ"
      ],
      [
        "ãĤĴ",
        "åı"
      ],
      [
        "ãĤ",
        "Ĭ"
      ],
      [
        ":ĊĠĠĠĠ",
        "ĠĠĠĠ"
      ],
      [
        "i",
        "fĠ"
      ],
      [
        "®",
        "ĭ"
      ],
      [
        "ķ",
        "ãģĦ"
      ],
      [
        "#",
        "Ġ"
      ],
      [
        "ãģ¦",
        "ãģ"
      ],
      [
        "ãĤĴæ",
        "®ĭ"
      ],
      [
        "forĠ",
        "xĠ"
      ],
      [
        "forĠxĠ",
        "inĠ"
      ],
      [
        "forĠ",
        "valueĠ"
      ],
      [
        "forĠvalueĠ",
        "inĠ"
      ],
      [
        "(",
        "xs"
      ],
      [
        ")",
        "Ġ"
      ],
      [
        "ãĥ",
        "ª"
      ],
      [
        "ãģłãģ",
        "ĳ"
      ],
      [
        "ãĥ",
        "Ī"
      ],
      [
        "ãģ¦",
        "ãĢģ"
      ],
      [
        "ãĤ",
        "¹"
      ],
      [
        "ãĥª",
        "ãĤ¹"
      ],
      [
        "ãĥªãĤ¹",
        "ãĥĪ"
      ],
      [
        "ãĤĴ",
        "å"
      ],
      [
        "å",
        "Ĳ"
      ],
      [
        "åĲ",
        "Ħ"
      ],
      [
        "u",
        "r"
      ],
      [
        "d",
        "e"
      ],
      [
        "t",
        "ur"
      ],
      [
        "tur",
        "n"
      ],
      [
        ",",
        "Ġk"
      ],
      [
        "-",
        ">"
      ],
      [
        ":",
        "Ġ"
      ],
      [
        "re",
        "turn"
      ],
      [
        "int",
        ")Ġ"
      ],
      [
        "Ġlist[int]",
        ":ĊĠĠĠĠ"
      ],
      [
        "fĠ",
        "solve"
      ],
      [
        ":Ġlist[int]",
        ",Ġk"
      ],
      [
        "(xs",
        ":Ġlist[int],Ġk"
      ],
      [
        "de",
        "fĠsolve"
      ],
      [
        "->",
        "Ġlist[int]:ĊĠĠĠĠ"
      ],
      [
        ":Ġ",
        "int)Ġ"
      ],
      [
        "return",
        "Ġ"
      ],
      [
        "ãĢ",
        "Ĥ"
      ],
      [
        "æķ´æķ°",
        "ãĥªãĤ¹ãĥĪ"
      ],
      [
        "æķ´æķ°ãĥªãĤ¹ãĥĪ",
        "xs"
      ],
      [
        "ķãģĦ",
        "ãĢĤ"
      ],
      [
        "ı",
        "ãģłãģ"
      ],
      [
        "ıãģłãģ",
        "ķãģĦãĢĤ"
      ],
      [
        "ãģ¦ãģ",
        "ıãģłãģķãģĦãĢĤ"
      ],
      [
        "é",
        "ĸ"
      ],
      [
        "éĸ",
        "¢"
      ],
      [
        "éĸ¢",
        "æķ°"
      ],
      [
        "ãģ",
        "ĳ"
      ],
      [
        "æķ´æķ°ãĥªãĤ¹ãĥĪxs",
        "ãģ"
      ],
      [
        "è",
        "¦"
      ],
      [
        "ç",
        "´"
      ],
      [
        "è¦",
        "ģ"
      ],
      [
        "è¦ģ",
        "ç´"
      ],
      [
        "ãĤ",
        "ī"
      ],
      [
        "result",
        "Ġ"
      ],
      [
        "output",
        "Ġ"
      ],
      [
        "åı",
        "ĸ"
      ],
      [
        "solve",
        "éĸ¢æķ°"
      ],
      [
        "ĭ",
        "ãĤī"
      ],
      [
        "]ĊĠĠĠĠ",
        "returnĠ"
      ],
      [
        "ä",
        "¸"
      ],
      [
        "ãģ",
        "«"
      ],
      [
        "é",
        "ł"
      ],
      [
        "ãģłãģĳ",
        "ãĤĴæ®ĭ"
      ],
      [
        "+",
        "=Ġ["
      ],
      [
        "Ġ=Ġ[",
        "]ĊĠĠĠĠ"
      ],
      [
        "åıĸ",
        "ãĤĬ"
      ],
      [
        "åıĸãĤĬ",
        "ãĢģ"
      ],
      [
        "k",
        "ãĤĴåı"
      ],
      [
        "¨",
        "æķ´æķ°"
      ],
      [
        "Ĺ",
        "ãģĳ"
      ],
      [
        "kãĤĴåı",
        "Ĺãģĳ"
      ],
      [
        "¨æķ´æķ°",
        "kãĤĴåıĹãģĳ"
      ],
      [
        "ãĤĭ",
        "ĊĠĠĠĠ"
      ],
      [
        "åĲĦ",
        "è¦ģç´"
      ],
      [
        "ãģłãģĳãĤĴæ®ĭ",
        "ãģĻ"
      ],
      [
        "]ĊĠĠĠĠ",
        "#Ġ"
      ],
      [
        "ãĤĴæ",
        "Ľ"
      ],
      [
        "ãĤĴæĽ",
        "¸"
      ],
      [
        "ãģĦ",
        "ãģ¦ãģıãģłãģķãģĦãĢĤ"
      ],
      [
        "solveéĸ¢æķ°",
        "ãĤĴæĽ¸"
      ],
      [
        "ãģĹ",
        "ãģ¦ãĢģ"
      ],
      [
        "ãģłãģĳãĤĴæ®ĭãģĻ",
        "ĊĠĠĠĠ"
      ],
      [
        "Ġ=Ġ[",
        "xĠ"
      ],
      [
        "Ġ=Ġ[",
        "valueĠ"
      ],
      [
        "ãģ®",
        "åĢ¤"
      ],
      [
        "åĢ",
        "į"
      ],
      [
        "ãģ",
        "ĭãĤī"
      ],
      [
        "åĲĦè¦ģç´",
        "łãģ"
      ],
      [
        "ãģ",
        "¹"
      ],
      [
        "ãģĹ",
        "ãĢģ"
      ],
      [
        "result",
        "Ċ"
      ],
      [
        "output",
        "Ċ"
      ],
      [
        "åĢ",
        "ĭ"
      ],
      [
        "å",
        "ĩ"
      ],
      [
        "åĩ",
        "º"
      ],
      [
        ":ĊĠĠĠĠĠĠĠĠ",
        "ĠĠĠĠ"
      ],
      [
        ":ĊĠĠĠĠĠĠĠĠ",
        "ifĠ"
      ],
      [
        "éł",
        "Ĩ"
      ],
      [
        "result",
        ":Ġlist[int]"
      ],
      [
        "output",
        ":Ġlist[int]"
      ],
      [
        "]ĊĠĠĠĠreturnĠ",
        "resultĊ"
      ],
      [
        "]ĊĠĠĠĠreturnĠ",
        "outputĊ"
      ],
      [
        "ãģ",
        "į"
      ],
      [
        "Ġ=Ġ[]ĊĠĠĠĠ",
        "forĠxĠinĠ"
      ],
      [
        "resultĠ",
        "+=Ġ["
      ],
      [
        "outputĠ",
        "+=Ġ["
      ],
      [
        "Ġ=Ġ[]ĊĠĠĠĠ",
        "forĠvalueĠinĠ"
      ],
      [
        "å",
        "¾"
      ],
      [
        "Ġ",
        "2"
      ],
      [
        "->Ġlist[int]:ĊĠĠĠĠ",
        "#Ġ"
      ],
      [
        "å¾",
        "Į"
      ],
      [
        "ä¸",
        "¦"
      ],
      [
        "ä",
        "»"
      ],
      [
        "ãĤĭ",
        "solveéĸ¢æķ°ãĤĴæĽ¸"
      ],
      [
        "ä»",
        "¥"
      ],
      [
        "ä»¥",
        "ä¸"
      ],
      [
        "Ġ=Ġ[xĠ",
        "forĠxĠinĠ"
      ],
      [
        "0",
        "Ġ"
      ],
      [
        "Ġ=Ġ[valueĠ",
        "forĠvalueĠinĠ"
      ],
      [
        "=",
        "=Ġ"
      ],
      [
        "k",
        "åĢĭ"
      ],
      [
        "ãģĹ",
        "ãģ¦ãģıãģłãģķãģĦãĢĤ"
      ],
      [
        "è",
        "£"
      ],
      [
        "®",
        "Ł"
      ],
      [
        "ãĤĴå",
        "®Ł"
      ],
      [
        "ħ",
        "ãģĹãģ¦ãģıãģłãģķãģĦãĢĤ"
      ],
      [
        "ãĤĴå®Ł",
        "è£"
      ],
      [
        "å",
        "ħ"
      ],
      [
        "æ",
        "ľ"
      ],
      [
        "ãģ",
        "Ŀ"
      ],
      [
        "ãĤĴåı",
        "ĸ"
      ],
      [
        "ł",
        "ãĤĴ"
      ],
      [
        "ä¸¦",
        "ãģ¹"
      ],
      [
        "#",
        "Ġk"
      ],
      [
        "éłĨ",
        "ãģ«"
      ],
      [
        "ãģĻ",
        "ãĤĭĊĠĠĠĠ"
      ],
      [
        "ãĤ",
        "Ī"
      ],
      [
        "e",
        "d"
      ],
      [
        "solveéĸ¢æķ°",
        "ãĤĴå®Łè£"
      ],
      [
        "k",
        "ãĤĴå"
      ],
      [
        "å",
        "°"
      ],
      [
        "Ġk",
        "Ġ"
      ],
      [
        "ãĤĴ",
        "é"
      ],
      [
        "éł",
        "Ń"
      ],
      [
        ":",
        ":"
      ],
      [
        "åħ",
        "Ī"
      ],
      [
        "åħĪ",
        "éłŃ"
      ],
      [
        "ãģĭãĤī",
        "kåĢĭ"
      ],
      [
        "éłĨãģ«",
        "ä¸¦ãģ¹"
      ],
      [
        "ãģĿ",
        "ãģ®"
      ],
      [
        "ãĤĪ",
        "ãĤĬ"
      ],
      [
        "resultĠ",
        "ifĠ"
      ],
      [
        "outputĠ",
        "ifĠ"
      ],
      [
        "»",
        "¢"
      ],
      [
        "è",
        "»¢"
      ],
      [
        "]ĊĠĠĠĠ",
        "result"
      ],
      [
        "]ĊĠĠĠĠ",
        "output"
      ],
      [
        "åĲĦè¦ģç´",
        "łãĤĴ"
      ],
      [
        "k",
        "Ġ"
      ],
      [
        "outputĠ",
        "=Ġ"
      ],
      [
        "resultĠ",
        "=Ġ"
      ],
      [
        "k",
        "ä»¥ä¸"
      ],
      [
        "Ń",
        "£"
      ],
      [
        "ãĤĴåı",
        "į"
      ],
      [
        "t",
        "ed"
      ],
      [
        "s",
        "or"
      ],
      [
        "sor",
        "ted"
      ],
      [
        "ãĤĴåıį",
        "è»¢"
      ],
      [
        "æ",
        "Ń£"
      ],
      [
        "ãģĿãģ®",
        "å¾Į"
      ],
      [
        ")",
        "ĊĠĠĠĠ"
      ],
      [
        "%",
        "Ġ2"
      ],
      [
        "è",
        "²"
      ],
      [
        "Ġ",
        "ifĠ"
      ],
      [
        "ãĤĴæ",
        "Ĭ"
      ],
      [
        "½",
        "åĩº"
      ],
      [
        "¤",
        "§"
      ],
      [
        "åĲĦè¦ģç´łãģ",
        "®"
      ],
      [
        "¤§",
        "ãģį"
      ],
      [
        "xs",
        "ĠifĠ"
      ],
      [
        "ãĤĴæĬ",
        "½åĩº"
      ],
      [
        "ç",
        "µ"
      ],
      [
        "ãģĻ",
        "ãĤĭsolveéĸ¢æķ°ãĤĴæĽ¸"
      ],
      [
        "xs",
        ":ĊĠĠĠĠĠĠĠĠifĠ"
      ],
      [
        "ķ",
        "ãģ"
      ],
      [
        "ä",
        "¹"
      ],
      [
        "ä¹",
        "Ĺ"
      ],
      [
        "łãģ",
        "®"
      ],
      [
        "ãĤĭ",
        "solveéĸ¢æķ°ãĤĴå®Łè£"
      ],
      [
        "Ġ",
        "=Ġ"
      ],
      [
        "ãĤĴå",
        "Ī"
      ],
      [
        "*",
        "Ġ"
      ],
      [
        "<",
        "Ġ"
      ],
      [
        ">",
        "Ġ"
      ],
      [
        "åĲĦè¦ģç´łãģ",
        "«"
      ],
      [
        "ãģ",
        "§"
      ],
      [
        "åĢ¤",
        "ãģłãģĳãĤĴæ®ĭãģĻĊĠĠĠĠ"
      ],
      [
        ":ĊĠĠĠĠĠĠĠĠ",
        "resultĠ+=Ġ["
      ],
      [
        ":ĊĠĠĠĠĠĠĠĠ",
        "outputĠ+=Ġ["
      ],
      [
        "ı",
        "ãģ"
      ],
      [
        "å",
        "¤§ãģį"
      ],
      [
        "ģ",
        "¸"
      ],
      [
        "ãģĭãĤīkåĢĭ",
        "ãĤĴåıĸ"
      ],
      [
        "ãĥ",
        "Ń"
      ],
      [
        "¼",
        "ãĥŃ"
      ],
      [
        "ãĤ",
        "¼ãĥŃ"
      ],
      [
        "ãģ®",
        "åĢį"
      ],
      [
        "ãģ®åĢį",
        "æķ°"
      ],
      [
        "]ĊĠĠĠĠ",
        "#Ġk"
      ],
      [
        "==Ġ",
        "0"
      ],
      [
        "è²",
        "łãģ®"
      ],
      [
        "0Ġ",
        "==Ġ"
      ],
      [
        "s",
        "e"
      ],
      [
        "ĩ",
        "ãĤĬ"
      ],
      [
        "*",
        "Ġ2"
      ],
      [
        "k",
        "ãĤĴ"
      ],
      [
        "re",
        "ve"
      ],
      [
        "reve",
        "r"
      ],
      [
        "ãģ¦",
        "ãģ®"
      ],
      [
        "ãĤĴåĪ",
        "ĩãĤĬ"
      ],
      [
        "å",
        "ģ"
      ],
      [
        "¶",
        "æķ°"
      ],
      [
        "åģ",
        "¶æķ°"
      ],
      [
        "çµ",
        "¶"
      ],
      [
        "¥",
        "ĩ"
      ],
      [
        "å",
        "¥ĩ"
      ],
      [
        "å¥ĩ",
        "æķ°"
      ],
      [
        "å",
        "¯"
      ],
      [
        "å¯",
        "¾"
      ],
      [
        "2",
        "åĢį"
      ],
      [
        "çµ¶",
        "å¯¾"
      ],
      [
        "çµ¶å¯¾",
        "åĢ¤"
      ],
      [
        "[",
        "::"
      ],
      [
        "ãģĻ",
        "ãģ¹"
      ],
      [
        "æŃ£",
        "ãģ®åĢ¤"
      ],
      [
        "ĭ",
        "ãģ®åĢ¤"
      ],
      [
        "ıãģ",
        "ķãģĦ"
      ],
      [
        "ä",
        "º"
      ],
      [
        "æķ´æķ°ãĥªãĤ¹ãĥĪxsãģ",
        "ĭãĤī"
      ],
      [
        "sorted",
        "("
      ],
      [
        "ãĤĴé",
        "ģ¸"
      ],
      [
        "äº",
        "Į"
      ],
      [
        "äºĮ",
        "ä¹Ĺ"
      ],
      [
        "ãģ®",
        "ãģ"
      ],
      [
        "ãĤ",
        "Ĥ"
      ],
      [
        "å¤§ãģį",
        "ãģĦ"
      ],
      [
        "æľ",
        "«"
      ],
      [
        "ãģĻ",
        "solveéĸ¢æķ°ãĤĴæĽ¸"
      ],
      [
        "å°",
        "¾"
      ],
      [
        "æľ«",
        "å°¾"
      ],
      [
        "ãģĻãģ¹",
        "ãģ¦ãģ®"
      ],
      [
        "ãģ",
        "Ī"
      ],
      [
        "¦",
        "åı"
      ],
      [
        "¬",
        "¦åı"
      ],
      [
        "ç",
        "¬¦åı"
      ],
      [
        "ç¬¦åı",
        "·"
      ],
      [
        "kãĤĴå",
        "Ĭ"
      ],
      [
        "k",
        "ãĤĪãĤĬ"
      ],
      [
        "kãĤĴå",
        "¼"
      ],
      [
        "ãģ®ãģ",
        "¿"
      ],
      [
        "ãģĹãĢģ",
        "ãģĿãģ®å¾Į"
      ],
      [
        "output",
        ":ĊĠĠĠĠĠĠĠĠifĠ"
      ],
      [
        "result",
        ":ĊĠĠĠĠĠĠĠĠifĠ"
      ],
      [
        "ç",
        "Ľ"
      ],
      [
        "éł",
        "ħ"
      ],
      [
        "çĽ",
        "®"
      ],
      [
        "éłħ",
        "çĽ®"
      ],
      [
        "ãģ",
        "³"
      ],
      [
        "łãģ",
        "Ī"
      ],
      [
        "kãĤĴåĬ",
        "łãģĪ"
      ],
      [
        "Ĭ",
        "ãģį"
      ],
      [
        ":",
        "k"
      ],
      [
        "å°",
        "ıãģķãģĦ"
      ],
      [
        "*Ġ",
        "3"
      ],
      [
        "åĩº",
        "ãģĹãģ¦ãĢģ"
      ],
      [
        "k",
        "ãģ®åĢįæķ°"
      ],
      [
        "ç¬¦åı·",
        "ãĤĴåıįè»¢"
      ],
      [
        "<",
        "=Ġ"
      ],
      [
        ">",
        "=Ġ"
      ],
      [
        "Ļ",
        "į"
      ],
      [
        "[",
        "0"
      ],
      [
        "kä»¥ä¸",
        "Ĭ"
      ],
      [
        ",",
        "Ġ"
      ],
      [
        "se",
        "="
      ],
      [
        "rever",
        "se="
      ],
      [
        ",Ġ",
        "reverse="
      ],
      [
        "éłĨãģ«ä¸¦ãģ¹",
        "ãĤĭĊĠĠĠĠ"
      ],
      [
        "resultĠ+=Ġ[",
        "x"
      ],
      [
        "outputĠ+=Ġ[",
        "x"
      ],
      [
        "resultĠ+=Ġ[",
        "value"
      ],
      [
        "ãģ¦ãģ",
        "ĭãĤī"
      ],
      [
        "outputĠ+=Ġ[",
        "value"
      ],
      [
        "[",
        "-"
      ],
      [
        "xĠ",
        "%Ġ2"
      ],
      [
        "ãģ",
        "£"
      ],
      [
        "valueĠ",
        "%Ġ2"
      ],
      [
        "!",
        "=Ġ"
      ],
      [
        "a",
        "b"
      ],
      [
        "s",
        "("
      ],
      [
        "ab",
        "s("
      ],
      [
        "ä",
        "¿"
      ],
      [
        "ä¿",
        "Ŀ"
      ],
      [
        "[-",
        "k"
      ],
      [
        "-",
        "1"
      ],
      [
        "[::",
        "-1"
      ],
      [
        "ĠkĠ",
        "forĠvalueĠinĠ"
      ],
      [
        "ĠkĠ",
        "forĠxĠinĠ"
      ],
      [
        "*Ġ2",
        "Ġ"
      ],
      [
        "ãģ",
        "Ĭãģį"
      ],
      [
        "ãģĬãģį",
        "ãģ«"
      ],
      [
        "ãģĭãĤī",
        "1"
      ],
      [
        "ãģĭãĤī1",
        "åĢĭ"
      ],
      [
        "]ĊĠĠĠĠ#Ġ",
        "åĲĦè¦ģç´łãĤĴ"
      ],
      [
        "ãģĭãĤī1åĢĭ",
        "ãģĬãģįãģ«"
      ],
      [
        "ĺ",
        "ĩ"
      ],
      [
        "kä»¥ä¸",
        "ĭãģ®åĢ¤"
      ],
      [
        "ãĤ",
        "¿"
      ],
      [
        "è¦ģç´",
        "ł"
      ],
      [
        "->Ġlist[int]:ĊĠĠĠĠ",
        "#Ġk"
      ],
      [
        "åĲĦè¦ģç´łãģ",
        "ĭãĤī"
      ],
      [
        "Ġ=Ġ[xĠforĠxĠinĠ",
        "xsĠifĠ"
      ],
      [
        "ãĤĴ",
        "ä¿Ŀ"
      ],
      [
        "åĲĦè¦ģç´łãģ®",
        "çµ¶å¯¾åĢ¤"
      ],
      [
        "output:Ġlist[int]",
        "Ġ=Ġ"
      ],
      [
        "æľ",
        "Ģ"
      ],
      [
        "result:Ġlist[int]",
        "Ġ=Ġ"
      ],
      [
        "åĲĦè¦ģç´łãģĭãĤī",
        "kãĤĴå¼"
      ],
      [
        "ī",
        "åĢį"
      ],
      [
        "ä¸",
        "īåĢį"
      ],
      [
        "åħĪéłŃ",
        "ãģĭãĤīkåĢĭãĤĴåıĸ"
      ],
      [
        "3",
        "åĢį"
      ],
      [
        "ãģ",
        "ķãģ"
      ],
      [
        "ãģķãģ",
        "Ľ"
      ],
      [
        "æľĢ",
        "å¾Į"
      ],
      [
        "k",
        "ãĤĴæ"
      ],
      [
        "ãģ",
        "ĭ"
      ],
      [
        "ç",
        "ı"
      ],
      [
        "çı",
        "¾"
      ],
      [
        "ķãģ",
        "ı"
      ],
      [
        "]ĊĠĠĠĠ",
        "resultĠ=Ġ"
      ],
      [
        "]ĊĠĠĠĠ",
        "outputĠ=Ġ"
      ],
      [
        "å",
        "ľ"
      ],
      [
        "åľ",
        "¨"
      ],
      [
        "çı¾",
        "åľ¨"
      ],
      [
        "çı¾åľ¨",
        "ãģ®"
      ],
      [
        "åĲĦè¦ģç´łãģ«",
        "kãĤĴåĬłãģĪ"
      ],
      [
        "æľ«å°¾",
        "ãģĭãĤīkåĢĭãĤĴåıĸ"
      ],
      [
        "®",
        "Ĺ"
      ],
      [
        "ç",
        "®Ĺ"
      ],
      [
        "ãĤĴéģ¸",
        "ãģ³"
      ],
      [
        "ãĤ",
        "Į"
      ],
      [
        "x",
        ":ĊĠĠĠĠĠĠĠĠĠĠĠĠ"
      ],
      [
        "æľĢå¾Į",
        "ãģ«"
      ],
      [
        "value",
        ":ĊĠĠĠĠĠĠĠĠĠĠĠĠ"
      ],
      [
        "ãģĻãĤĭĊĠĠĠĠ",
        "result"
      ],
      [
        "Ġ=Ġ[]ĊĠĠĠĠforĠxĠinĠ",
        "xs"
      ],
      [
        "ãģĻãĤĭĊĠĠĠĠ",
        "output"
      ],
      [
        "sorted",
        "(xs"
      ],
      [
        "ãģ£",
        "ãģ¦ãĢģ"
      ],
      [
        ")ĊĠĠĠĠ",
        "returnĠ"
      ],
      [
        "ãģ®ãģ¿",
        "ãĤĴæ®ĭ"
      ],
      [
        "ãĤĴ",
        "ä¸īåĢį"
      ],
      [
        "åĢ¤",
        "ãĤĴå"
      ],
      [
        "ª",
        "æ"
      ],
      [
        "k",
        "æľ"
      ],
      [
        "º",
        "Ģ"
      ],
      [
        "ªæ",
        "ºĢ"
      ],
      [
        "kæľ",
        "ªæºĢ"
      ],
      [
        "ãĥ",
        "¼"
      ],
      [
        "*Ġ3",
        "Ġ"
      ],
      [
        "å",
        "º"
      ],
      [
        "éłĨ",
        "åº"
      ],
      [
        "éłĨåº",
        "ı"
      ],
      [
        "kæľªæºĢ",
        "ãģ®åĢ¤"
      ],
      [
        "ĩ",
        "ãĥ¼"
      ],
      [
        "ãĥ",
        "ĩãĥ¼"
      ],
      [
        "ãĥĩãĥ¼",
        "ãĤ¿"
      ],
      [
        "sorted(",
        "output"
      ],
      [
        "sorted(",
        "result"
      ],
      [
        "æ",
        "Į"
      ],
      [
        "]ĊĠĠĠĠ",
        "output:Ġlist[int]"
      ],
      [
        "ãĤĴ",
        "2åĢį"
      ],
      [
        "İ",
        "Ľ"
      ],
      [
        "kãĤĴæ",
        "İĽ"
      ],
      [
        "kãĤĴæİĽ",
        "ãģĳ"
      ],
      [
        "]ĊĠĠĠĠ",
        "result:Ġlist[int]"
      ],
      [
        "]ĊĠĠĠĠ#Ġk",
        "ãĤĪãĤĬ"
      ],
      [
        "ãģ«",
        "kãĤĴ"
      ],
      [
        "Ġ=Ġ[",
        "-"
      ],
      [
        "]ĊĠĠĠĠ#Ġk",
        "ä»¥ä¸"
      ],
      [
        "ãģłãģĳãĤĴæ®ĭ",
        "ãģĹãĢģ"
      ],
      [
        "Ġk",
        ":ĊĠĠĠĠĠĠĠĠĠĠĠĠ"
      ],
      [
        ":ĊĠĠĠĠĠĠĠĠoutputĠ+=Ġ[",
        "xĠ"
      ],
      [
        "0",
        ":ĊĠĠĠĠĠĠĠĠĠĠĠĠ"
      ],
      [
        ":ĊĠĠĠĠĠĠĠĠresultĠ+=Ġ[",
        "xĠ"
      ],
      [
        "åĲĦ",
        "æķ°"
      ],
      [
        "ãģ",
        "Ł"
      ],
      [
        "æ",
        "Ľ"
      ],
      [
        "æĽ",
        "¿"
      ],
      [
        "æĽ¿",
        "ãģĪ"
      ],
      [
        "ãģ¦ãģĭãĤī",
        "ãĢģ"
      ],
      [
        "valueĠ",
        "forĠvalueĠinĠ"
      ],
      [
        "==Ġ0",
        ":ĊĠĠĠĠĠĠĠĠĠĠĠĠ"
      ],
      [
        "Ġ=Ġ[",
        "abs("
      ],
      [
        "ãĢģ",
        "ãģĿãģ®å¾Į"
      ],
      [
        "xĠ",
        "forĠxĠinĠ"
      ],
      [
        "å",
        "Ī"
      ],
      [
        "åĲĦ",
        "éłħçĽ®"
      ],
      [
        "kãĤĪãĤĬ",
        "ãĤĤ"
      ],
      [
        "ãģĭ",
        "ãģĳ"
      ],
      [
        "åĲĦè¦ģç´łãģ«",
        "kãĤĴæİĽãģĳ"
      ],
      [
        "ãĤĴ",
        "è"
      ],
      [
        "è²łãģ®",
        "æķ°"
      ],
      [
        "ãĤ",
        "ĵ"
      ],
      [
        "ãĤĵ",
        "ãģ§"
      ],
      [
        "å¤§ãģįãģĦ",
        "åĢ¤"
      ],
      [
        "[0",
        ":k"
      ],
      [
        "æ",
        "ĺĩ"
      ],
      [
        "[",
        ":k"
      ],
      [
        "<=Ġ",
        "k"
      ],
      [
        "0Ġ",
        "<Ġ"
      ],
      [
        "kĠ",
        ">=Ġ"
      ],
      [
        "kĠ",
        "<Ġ"
      ],
      [
        "ãĤ",
        "ģ"
      ],
      [
        "ãģ",
        "ª"
      ],
      [
        "ķãģı",
        "ĊĠĠĠĠ"
      ],
      [
        "ãģ«",
        "ãģĹãģ¦ãĢģ"
      ],
      [
        "ãĤĴé",
        "Ļį"
      ],
      [
        "%",
        "ĠkĠ"
      ],
      [
        "kĠ",
        ">Ġ"
      ],
      [
        "0Ġ",
        ">Ġ"
      ],
      [
        "F",
        "al"
      ],
      [
        ",Ġreverse=",
        "Fal"
      ],
      [
        ",Ġreverse=Fal",
        "se"
      ],
      [
        "æĺĩ",
        "éłĨãģ«ä¸¦ãģ¹ãĤĭĊĠĠĠĠ"
      ],
      [
        "ãģłãģĳ",
        "ãĤĴæĬ½åĩº"
      ],
      [
        "ãĤĭĊĠĠĠĠ",
        "resultĠ=Ġ"
      ],
      [
        "ãĤĭĊĠĠĠĠ",
        "outputĠ=Ġ"
      ],
      [
        "æĮ",
        "ģ"
      ],
      [
        "åĩº",
        "ãģĻsolveéĸ¢æķ°ãĤĴæĽ¸"
      ],
      [
        "éłĨ",
        "ãĤĴåıįè»¢"
      ],
      [
        "çı¾åľ¨ãģ®",
        "è¦ģç´ł"
      ],
      [
        "åĲĦè¦ģç´łãĤĴ",
        "äºĮä¹Ĺ"
      ],
      [
        "output",
        "Ġ=Ġ[xĠforĠxĠinĠ"
      ],
      [
        "è¦ģç´",
        "łãĤĴ"
      ],
      [
        "ãĤĴä¿Ŀ",
        "æĮģ"
      ],
      [
        "result",
        "Ġ=Ġ[xĠforĠxĠinĠ"
      ],
      [
        "(",
        "rever"
      ],
      [
        "s",
        "ed"
      ],
      [
        "(rever",
        "sed"
      ],
      [
        "éłĨãĤĴåıįè»¢",
        "ãģĻãĤĭĊĠĠĠĠ"
      ],
      [
        "ãĤĭĊĠĠĠĠ",
        "result"
      ],
      [
        ")ĊĠĠĠĠ",
        "#Ġ"
      ],
      [
        "é",
        "Ļį"
      ],
      [
        "ãĤĭĊĠĠĠĠ",
        "output"
      ],
      [
        "0Ġ",
        "!=Ġ"
      ],
      [
        "xĠ%Ġ2",
        "Ġ"
      ],
      [
        "kĠ",
        "<=Ġ"
      ],
      [
        "éłĨãģ«ä¸¦ãģ¹",
        "æĽ¿ãģĪ"
      ],
      [
        ">=Ġ",
        "k"
      ],
      [
        "valueĠ%Ġ2",
        "Ġ"
      ],
      [
        "Ĭ",
        "ãģ®åĢ¤"
      ],
      [
        "[-k",
        ":"
      ],
      [
        "list",
        "(reversed"
      ],
      [
        "Ģ",
        "Ĩ"
      ],
      [
        "ãģĭãĤī1åĢĭãģĬãģįãģ«",
        "åıĸ"
      ],
      [
        "[::",
        "2"
      ],
      [
        "[-k",
        "::"
      ],
      [
        "Ġk",
        "]ĊĠĠĠĠ#Ġ"
      ],
      [
        "Ġ=Ġ[valueĠ",
        "*"
      ],
      [
        "::",
        "2"
      ],
      [
        "[0",
        "::2"
      ],
      [
        "T",
        "r"
      ],
      [
        "ç",
        "ķ"
      ],
      [
        ",Ġreverse=",
        "Tr"
      ],
      [
        ",Ġreverse=Tr",
        "ue"
      ],
      [
        "Ġ=Ġ[xĠ",
        "*"
      ],
      [
        "éĻį",
        "éłĨãģ«ä¸¦ãģ¹ãĤĭĊĠĠĠĠ"
      ],
      [
        "*Ġ2Ġ",
        "forĠxĠinĠ"
      ],
      [
        "æ",
        "®ĭ"
      ],
      [
        "ķ",
        "ãģį"
      ],
      [
        "ãģ",
        "Ĩ"
      ],
      [
        ")",
        "[::-1"
      ],
      [
        "åħ",
        "¨"
      ],
      [
        "ãĤĤ",
        "ãģ®"
      ],
      [
        "*Ġ2Ġ",
        "forĠvalueĠinĠ"
      ],
      [
        "ãģ",
        "ı"
      ],
      [
        "resultĠifĠ",
        "xĠ"
      ],
      [
        "outputĠifĠ",
        "xĠ"
      ],
      [
        "ãĤĴé",
        "ĢĨ"
      ],
      [
        "è²łãģ®",
        "åĢ¤"
      ],
      [
        "resultĠifĠ",
        "valueĠ"
      ],
      [
        "outputĠifĠ",
        "valueĠ"
      ],
      [
        "ļ",
        "Ķ"
      ],
      [
        "é",
        "ļĶ"
      ],
      [
        "xs",
        "]ĊĠĠĠĠ#Ġ"
      ],
      [
        "ãĤĴéģ¸",
        "ãĤĵãģ§"
      ],
      [
        "åĢ¤",
        "ãĤĴéĻį"
      ],
      [
        "kä»¥ä¸Ĭ",
        "ãģ®åĢ¤"
      ],
      [
        "çķ",
        "ª"
      ],
      [
        "éļĶ",
        "çķª"
      ],
      [
        "¨",
        "Ī"
      ],
      [
        "¨Ī",
        "ç®Ĺ"
      ],
      [
        "ãĤĴæ®ĭ",
        "ãģĹãģ¦ãĢģ"
      ],
      [
        "åĢ¤",
        "ãĤĴæ"
      ],
      [
        "ãĤĴæ®ĭ",
        "ãģĹ"
      ],
      [
        "éĸ¢æķ°",
        "solve"
      ],
      [
        "æŃ£",
        "è²"
      ],
      [
        "ãĤĴ",
        "äºĮä¹Ĺ"
      ],
      [
        "éĸ¢æķ°solve",
        "ãĤĴå®Łè£"
      ],
      [
        "ãĤĴæ®ĭ",
        "ãģĹãĢģ"
      ],
      [
        "ãĤĴæĬ½åĩº",
        "ãģĹãģ¦ãĢģ"
      ],
      [
        "kãĤĪãĤĬ",
        "å¤§ãģįãģĦåĢ¤"
      ],
      [
        "ãģŁ",
        "å¾Į"
      ],
      [
        "éłĨãģ«ä¸¦ãģ¹",
        "ãģ¦ãĢģ"
      ],
      [
        "ãģĿ",
        "ãĤĮ"
      ],
      [
        "ãģĻ",
        "solveéĸ¢æķ°ãĤĴå®Łè£"
      ],
      [
        "ä¸¦",
        "ãģ³"
      ],
      [
        "åħĪéłŃ",
        "ãģĭãĤīkåĢĭ"
      ],
      [
        "åĲĦ",
        "ãĥĩãĥ¼ãĤ¿"
      ],
      [
        "ãģ®",
        "æķ°"
      ],
      [
        "xsĠifĠ",
        "valueĠ"
      ],
      [
        "Ġ=Ġ[xĠforĠxĠinĠxsĠifĠ",
        "xĠ"
      ],
      [
        "ãĤĴè",
        "¨Īç®Ĺ"
      ],
      [
        "xs:ĊĠĠĠĠĠĠĠĠifĠ",
        "xĠ"
      ],
      [
        "æľ«å°¾",
        "ãģĭãĤīkåĢĭ"
      ],
      [
        "xs",
        ":ĊĠĠĠĠĠĠĠĠresultĠ+=Ġ["
      ],
      [
        "xs:ĊĠĠĠĠĠĠĠĠifĠ",
        "valueĠ"
      ],
      [
        "Ġk",
        "]ĊĠĠĠĠreturnĠoutputĊ"
      ],
      [
        "åĢ¤ãĤĴå",
        "°"
      ],
      [
        "Ġk",
        "]ĊĠĠĠĠreturnĠresultĊ"
      ],
      [
        "xs",
        ":ĊĠĠĠĠĠĠĠĠoutputĠ+=Ġ["
      ],
      [
        "outputĠifĠ",
        "0Ġ==Ġ"
      ],
      [
        "åıĸãĤĬãĢģ",
        "kãģ®åĢįæķ°"
      ],
      [
        "±",
        "Ĥ"
      ],
      [
        "ãĤĴåĪĩãĤĬ",
        "åıĸ"
      ],
      [
        "ĠkĠforĠvalueĠinĠ",
        "output"
      ],
      [
        ")ĊĠĠĠĠreturnĠ",
        "outputĊ"
      ],
      [
        ")ĊĠĠĠĠreturnĠ",
        "resultĊ"
      ],
      [
        "±Ĥ",
        "ãĤģ"
      ],
      [
        ">Ġ",
        "0"
      ],
      [
        "ĠkĠforĠxĠinĠ",
        "output"
      ],
      [
        "ĠkĠforĠvalueĠinĠ",
        "result"
      ],
      [
        "resultĠifĠ",
        "0Ġ==Ġ"
      ],
      [
        "*Ġ3Ġ",
        "forĠvalueĠinĠ"
      ],
      [
        "%ĠkĠ",
        "==Ġ0"
      ],
      [
        "æķ°",
        "ãģ®"
      ],
      [
        "ãĤĴä¸īåĢį",
        "ãģĹãģ¦ãĢģ"
      ],
      [
        "åĢ¤ãĤĴæ",
        "ĺĩ"
      ],
      [
        "*Ġ3Ġ",
        "forĠxĠinĠ"
      ],
      [
        "¤",
        "ī"
      ],
      [
        "é",
        "Ľ"
      ],
      [
        "åĲĦ",
        "åĢ¤"
      ],
      [
        "ãĤĴæ",
        "±ĤãĤģ"
      ],
      [
        "Ń",
        "ĺ"
      ],
      [
        "list(reversed",
        "("
      ],
      [
        "åĪ",
        "Ĺ"
      ],
      [
        "ĠkĠforĠxĠinĠ",
        "result"
      ],
      [
        "]ĊĠĠĠĠ#Ġkä»¥ä¸",
        "ĭãģ®åĢ¤"
      ],
      [
        "åĲĦè¦ģç´łãĤĴ",
        "2åĢį"
      ],
      [
        "<Ġ",
        "0"
      ],
      [
        "ãģ",
        "²"
      ],
      [
        "Ġ=Ġ[valueĠ",
        "-"
      ],
      [
        "Ġ=Ġ[xĠ",
        "*Ġ3ĠforĠxĠinĠ"
      ],
      [
        "è",
        "¶"
      ],
      [
        "valueĠ",
        "*"
      ],
      [
        "Ġ=Ġ[xĠ",
        "-"
      ],
      [
        "kä»¥ä¸Ĭ",
        "ãģ®"
      ],
      [
        "ãģĹ",
        "ãģ¦ãģĭãĤīãĢģ"
      ],
      [
        "ŀ",
        "ãĤĮ"
      ],
      [
        "ãģ",
        "ŀãĤĮ"
      ],
      [
        "åĢ¤ãĤĴå°",
        "ıãģķãģĦ"
      ],
      [
        "ãģĿãĤĮ",
        "ãģŀãĤĮ"
      ],
      [
        "Ġ=Ġ[-",
        "xĠforĠxĠinĠ"
      ],
      [
        "]ĊĠĠĠĠ#Ġk",
        "ãģ®åĢįæķ°"
      ],
      [
        "åĲĦè¦ģç´łãĤĴ",
        "3åĢį"
      ],
      [
        "ãĤĴåĪĩãĤĬ",
        "åĩºãģĹãģ¦ãĢģ"
      ],
      [
        "value",
        "]ĊĠĠĠĠ#Ġ"
      ],
      [
        "åıĸãĤĬãĢģ",
        "kä»¥ä¸ĭãģ®åĢ¤"
      ],
      [
        "value",
        ")Ġ"
      ],
      [
        "value)Ġ",
        "forĠvalueĠinĠ"
      ],
      [
        "å°ıãģķãģĦ",
        "åĢ¤"
      ],
      [
        "!=Ġ",
        "0"
      ],
      [
        "ãģŁå¾Į",
        "ãĢģ"
      ],
      [
        "x",
        "]ĊĠĠĠĠ#Ġ"
      ],
      [
        "x",
        ")Ġ"
      ],
      [
        "x)Ġ",
        "forĠxĠinĠ"
      ],
      [
        "ãģłãģĳ",
        "ãĤĴéģ¸ãģ³"
      ],
      [
        "Ġ=Ġ[xĠ",
        "*Ġ2ĠforĠxĠinĠ"
      ],
      [
        "]ĊĠĠĠĠ#Ġkä»¥ä¸",
        "Ĭãģ®åĢ¤"
      ],
      [
        "å¤§ãģį",
        "ãģª"
      ],
      [
        "å¤§ãģįãģª",
        "åĢ¤"
      ],
      [
        "Ġ=Ġ[abs(",
        "x)ĠforĠxĠinĠ"
      ],
      [
        "output:Ġlist[int]Ġ=Ġ",
        "xs"
      ],
      [
        "ãģĭãĤī",
        "kãĤĴå¼"
      ],
      [
        "ãģ",
        "¨"
      ],
      [
        "Ġ=Ġ[valueĠ",
        "+"
      ],
      [
        "kãĤĴ",
        "ãģĭãģĳ"
      ],
      [
        "Ġ=Ġ[xĠ",
        "+"
      ],
      [
        "ãģ«kãĤĴ",
        "ãģĭãģĳ"
      ],
      [
        "ãģĻãģ¹ãģ¦ãģ®",
        "éłħçĽ®"
      ],
      [
        "éļĶçķª",
        "ãģ§"
      ],
      [
        "åħ¨",
        "ãģ¦ãģ®"
      ],
      [
        "ãģĻãģ¹ãģ¦ãģ®",
        "è¦ģç´łãĤĴ"
      ],
      [
        "æŃ£è²",
        "ł"
      ],
      [
        "result:Ġlist[int]Ġ=Ġ",
        "xs"
      ],
      [
        "ãģĹãĢģ",
        "æľĢå¾Įãģ«"
      ],
      [
        "å¾",
        "Ĺ"
      ],
      [
        "ãĤĪ",
        "ãģĨ"
      ],
      [
        "æ",
        "ĸ"
      ],
      [
        "æĸ",
        "¹"
      ],
      [
        "éłĨåºı",
        "ãĤĴåıįè»¢"
      ],
      [
        "¤ī",
        "ãģĪ"
      ],
      [
        "ãģĹãĢģãģĿãģ®å¾Į",
        "ãģ§"
      ],
      [
        "ãģ«",
        "kãĤĴåĬłãģĪ"
      ],
      [
        "ãĤĭ",
        "åĢ¤"
      ],
      [
        "³",
        "æĸ¹"
      ],
      [
        "¹",
        "³æĸ¹"
      ],
      [
        "ãģ«kãĤĴ",
        "ä¹Ĺ"
      ],
      [
        "ãĤĭ",
        "éĸ¢æķ°solveãĤĴå®Łè£"
      ],
      [
        "ãģ",
        "ĺ"
      ],
      [
        "]ĊĠĠĠĠresultĠ=Ġ",
        "result"
      ],
      [
        "xĠ",
        "%"
      ],
      [
        "é",
        "ģ¸"
      ],
      [
        "ãĤĴæĬ½åĩº",
        "ãģĹãĢģ"
      ],
      [
        "ãģĹ",
        "ãģ¦"
      ],
      [
        "]ĊĠĠĠĠoutputĠ=Ġ",
        "output"
      ],
      [
        "valueĠ",
        "%"
      ],
      [
        "ãģĦ",
        "ãģ¦ãĢģ"
      ],
      [
        "x",
        "]ĊĠĠĠĠreturnĠoutputĊ"
      ],
      [
        "x",
        "]ĊĠĠĠĠreturnĠresultĊ"
      ],
      [
        "xs:ĊĠĠĠĠĠĠĠĠifĠ",
        "0Ġ==Ġ"
      ],
      [
        "ãĤĤãģ®",
        "ãģĭãĤī"
      ],
      [
        "kãĤĴ",
        "è¶"
      ],
      [
        "0Ġ!=Ġ",
        "xĠ%Ġ2"
      ],
      [
        "åıĸãĤĬãĢģ",
        "ãĤ¼ãĥŃ"
      ],
      [
        "ãģ«",
        "ãģĻ"
      ],
      [
        "å",
        "Ńĺ"
      ],
      [
        "0Ġ!=Ġ",
        "valueĠ%Ġ2"
      ],
      [
        "åıĸãĤĬãĢģ",
        "åģ¶æķ°"
      ],
      [
        "ãĤĭĊĠĠĠĠoutputĠ=Ġ",
        "output"
      ],
      [
        "ãģ¦",
        "ãģ®åĢ¤"
      ],
      [
        "ãĤĴ",
        "ç"
      ],
      [
        "ãģı",
        "solveéĸ¢æķ°ãĤĴæĽ¸"
      ],
      [
        "æ",
        "Ĭ"
      ],
      [
        "ãĤĭĊĠĠĠĠresultĠ=Ġ",
        "result"
      ],
      [
        "ãģĹ",
        "ãģ¦ãģĭãĤī"
      ],
      [
        "£",
        "ãĥ"
      ],
      [
        "«",
        "ãĤ¿"
      ],
      [
        "ķ",
        "ãĤ"
      ],
      [
        "ãĥ",
        "ķãĤ"
      ],
      [
        "£ãĥ",
        "«ãĤ¿"
      ],
      [
        "ãĥķãĤ",
        "£ãĥ«ãĤ¿"
      ],
      [
        "resultĠ+=Ġ[x",
        "]ĊĠĠĠĠ#Ġ"
      ],
      [
        "outputĠ+=Ġ[x",
        "]ĊĠĠĠĠ#Ġ"
      ],
      [
        "ä",
        "½"
      ],
      [
        "ãĤĴ",
        "ãĥķãĤ£ãĥ«ãĤ¿"
      ],
      [
        "output:ĊĠĠĠĠĠĠĠĠifĠ",
        "xĠ"
      ],
      [
        "åĢ¤ãĤĴå",
        "¤§ãģį"
      ],
      [
        "åĢ¤",
        "ãģ®"
      ],
      [
        "result:ĊĠĠĠĠĠĠĠĠifĠ",
        "xĠ"
      ],
      [
        "ä»¥ä¸",
        "ĭãģ®åĢ¤"
      ],
      [
        "ãĤĴä¿Ŀ",
        "åŃĺ"
      ],
      [
        "ãĤĪãĤĬ",
        "å¤§ãģįãģĦ"
      ],
      [
        "ãĤĴåĪĩãĤĬ",
        "åĩº"
      ],
      [
        "valueĠ",
        "-"
      ],
      [
        "çµ¶å¯¾åĢ¤",
        "ãĤĴæ±ĤãĤģ"
      ],
      [
        "ãĤĪãĤĬ",
        "å°ıãģķãģĦ"
      ],
      [
        "ãĤĴå",
        "¹³æĸ¹"
      ],
      [
        "åıĸãĤĬãĢģ",
        "å¥ĩæķ°"
      ],
      [
        "åıĸãĤĬãĢģ",
        "kæľªæºĢãģ®åĢ¤"
      ],
      [
        "åĲĦè¦ģç´łãģ«",
        "kãĤĴãģĭãģĳ"
      ],
      [
        "ãģĻãģ¹ãģ¦ãģ®",
        "æķ°"
      ],
      [
        "ãĤĴå",
        "¤īãģĪ"
      ],
      [
        "ãģ«kãĤĴä¹Ĺ",
        "ãģĺ"
      ],
      [
        "Ġk",
        "]ĊĠĠĠĠresult"
      ],
      [
        "åıĸãĤĬãĢģ",
        "æŃ£ãģ®åĢ¤"
      ],
      [
        ",Ġreverse=False",
        ")ĊĠĠĠĠ"
      ],
      [
        "valueĠ",
        "*Ġ3"
      ],
      [
        "ãĤĴåıĸ",
        "ãĤĬ"
      ],
      [
        "åĢ¤ãĤĴå¤§ãģį",
        "ãģĦ"
      ],
      [
        ">Ġ",
        "0:ĊĠĠĠĠĠĠĠĠĠĠĠĠ"
      ],
      [
        "<=Ġk",
        ":ĊĠĠĠĠĠĠĠĠĠĠĠĠ"
      ],
      [
        "éłĨåºı",
        "ãĤĴéĢĨ"
      ],
      [
        "Ġk",
        "]ĊĠĠĠĠoutput"
      ],
      [
        "åıĸãĤĬãĢģ",
        "kãĤĪãĤĬãĤĤ"
      ],
      [
        ">",
        "Ġk:ĊĠĠĠĠĠĠĠĠĠĠĠĠ"
      ],
      [
        "<Ġ",
        "0:ĊĠĠĠĠĠĠĠĠĠĠĠĠ"
      ],
      [
        "<",
        "Ġk:ĊĠĠĠĠĠĠĠĠĠĠĠĠ"
      ],
      [
        "ä¸¦ãģ¹",
        "ãģ¦ãĢģ"
      ],
      [
        "ãĥ",
        "³"
      ],
      [
        "ãĤ",
        "°"
      ],
      [
        "ãĥª",
        "ãĥ³"
      ],
      [
        "ãĥªãĥ³",
        "ãĤ°"
      ],
      [
        "ä¸",
        "Ń"
      ],
      [
        "%ĠkĠ",
        "==Ġ0:ĊĠĠĠĠĠĠĠĠĠĠĠĠ"
      ],
      [
        "åĪ",
        "¥"
      ],
      [
        "łãģ",
        "«"
      ],
      [
        "ãģ£",
        "ãģı"
      ],
      [
        "ãģ²",
        "ãģ£ãģı"
      ],
      [
        "ãģ²ãģ£ãģı",
        "ãĤĬ"
      ],
      [
        "ãĤĴæ®ĭãģĹ",
        "ãģ¦ãģ"
      ],
      [
        "ç¬¦åı·ãĤĴåıįè»¢",
        "ãģķãģĽ"
      ],
      [
        ")",
        ")ĊĠĠĠĠ"
      ],
      [
        "ãģ",
        "Į"
      ],
      [
        "åıĸãĤĬãĢģ",
        "åħĪéłŃ"
      ],
      [
        "value",
        ")"
      ],
      [
        "abs(",
        "value)"
      ],
      [
        "åıĸãĤĬãĢģ",
        "åĲĦéłħçĽ®"
      ],
      [
        "valueĠ",
        "+"
      ],
      [
        "]ĊĠĠĠĠ#Ġ",
        "æŃ£ãģ®åĢ¤"
      ],
      [
        "ä»¥ä¸",
        "Ĭãģ®åĢ¤"
      ],
      [
        "ĠkĠforĠxĠinĠ",
        "xs"
      ],
      [
        "ãģĻãģ¹",
        "ãģ¦ãģ®åĢ¤"
      ],
      [
        ",Ġreverse=True",
        ")ĊĠĠĠĠ"
      ],
      [
        "ĠkĠforĠvalueĠinĠ",
        "xs"
      ],
      [
        "ãĤĴåıĸ",
        "å¾Ĺ"
      ],
      [
        "ãĤĴéģ¸ãĤĵãģ§",
        "ãĢģ"
      ],
      [
        "ãģĿãģ®",
        "ä¸Ń"
      ],
      [
        "!=Ġ",
        "0:ĊĠĠĠĠĠĠĠĠĠĠĠĠ"
      ],
      [
        "ãĤĴéģ¸ãģ³",
        "åĩºãģĹãģ¦ãĢģ"
      ],
      [
        "]ĊĠĠĠĠ#Ġ",
        "åĲĦè¦ģç´łãģ®"
      ],
      [
        "x",
        ")"
      ],
      [
        "abs(",
        "x)"
      ],
      [
        "kä»¥ä¸",
        "ĭ"
      ],
      [
        ">=Ġk",
        ":ĊĠĠĠĠĠĠĠĠĠĠĠĠ"
      ],
      [
        "éĽ",
        "Ĩ"
      ],
      [
        "]ĊĠĠĠĠ#Ġ",
        "ãĤ¼ãĥŃ"
      ],
      [
        "valueĠ",
        "*Ġ2"
      ],
      [
        "åıĸãĤĬãĢģ",
        "åĲĦæķ°"
      ],
      [
        "ãģłãģĳãĤĴæĬ½åĩº",
        "ãģĻ"
      ],
      [
        "]ĊĠĠĠĠ#Ġ",
        "è²łãģ®"
      ],
      [
        "ķãģıĊĠĠĠĠ",
        "output"
      ],
      [
        "ĭ",
        "¾"
      ],
      [
        "¼",
        "ķãģį"
      ],
      [
        "ãĤĴ2åĢį",
        "ãģ«ãģĹãģ¦ãĢģ"
      ],
      [
        "¸",
        "Ľ"
      ],
      [
        "ķãģıĊĠĠĠĠ",
        "result"
      ],
      [
        "outputĠ=Ġ",
        "sorted(output"
      ],
      [
        "ãģĹ",
        "ãģŁå¾ĮãĢģ"
      ],
      [
        "]ĊĠĠĠĠ#Ġ",
        "å¥ĩæķ°"
      ],
      [
        "ãģĭ",
        "ãģĪ"
      ],
      [
        "ãģĿãģ®ä¸Ń",
        "ãģĭãĤī"
      ],
      [
        "ãģ",
        "Ĥ"
      ],
      [
        "ãģĭãĤī1åĢĭãģĬãģįãģ«",
        "éģ¸"
      ],
      [
        "]",
        "Ċ"
      ],
      [
        "ãĤĴå",
        "¼ķãģį"
      ],
      [
        "Ĭãģį",
        "ãĢģ"
      ],
      [
        "]ĊĠĠĠĠoutputĠ=Ġ",
        "result"
      ],
      [
        "ãĤĴ2åĢį",
        "ãģĹãģ¦ãĢģ"
      ],
      [
        "]ĊĠĠĠĠ#Ġ",
        "åģ¶æķ°"
      ],
      [
        "]ĊĠĠĠĠresultĠ=Ġ",
        "output"
      ],
      [
        "]ĊĠĠĠĠ#Ġ",
        "çı¾åľ¨ãģ®è¦ģç´ł"
      ],
      [
        "æŃ£",
        "ãģ®æķ°"
      ],
      [
        "resultĠ=Ġ",
        "xs"
      ],
      [
        "*Ġ",
        "valueĠforĠvalueĠinĠ"
      ],
      [
        "resultĠ=Ġ",
        "sorted(result"
      ],
      [
        "ãĤĴåıĸ",
        "ãĤĭĊĠĠĠĠ"
      ],
      [
        "ãģ®ãģ¿ãĤĴæ®ĭ",
        "ãģĹãĢģ"
      ],
      [
        "outputĠ=Ġ",
        "xs"
      ],
      [
        "ãģ®",
        "kåĢĭ"
      ],
      [
        "*Ġ2ĠforĠvalueĠinĠ",
        "result"
      ],
      [
        "ãģ",
        "¶"
      ],
      [
        "outputĠ=Ġ",
        "sorted(xs"
      ],
      [
        "ä¸",
        "Ĭ"
      ],
      [
        "ãģĻãģ¹ãģ¦ãģ®",
        "ãĥĩãĥ¼ãĤ¿"
      ],
      [
        "list(reversed(",
        "result"
      ],
      [
        "Ġ=Ġ[xĠ*",
        "*Ġ2ĠforĠxĠinĠ"
      ],
      [
        "*Ġ",
        "xĠforĠxĠinĠ"
      ],
      [
        "ãĤĴåĪĩãĤĬåıĸ",
        "ãģ£ãģ¦ãĢģ"
      ],
      [
        "resultĠ=Ġ",
        "sorted(xs"
      ],
      [
        "*Ġ2ĠforĠvalueĠinĠ",
        "output"
      ],
      [
        "list(reversed",
        "(xs"
      ],
      [
        ":ĊĠĠĠĠĠĠĠĠoutputĠ+=Ġ[",
        "-"
      ],
      [
        "ãĢģ",
        "æľĢå¾Įãģ«"
      ],
      [
        "list(reversed(",
        "output"
      ],
      [
        "ãĤĴåıĸ",
        "ãĤĭĊĠĠĠĠresult"
      ],
      [
        "ãĤĴåıĸ",
        "ãĤĭĊĠĠĠĠoutput"
      ],
      [
        ":ĊĠĠĠĠĠĠĠĠresultĠ+=Ġ[",
        "-"
      ],
      [
        "ãĤĴåĪ",
        "Ĩ"
      ],
      [
        "Ġ=Ġ[xĠ",
        "*ĠxĠforĠxĠinĠ"
      ],
      [
        "ãģłãģĳãĤĴæ®ĭ",
        "ãģĹãģ¦ãĢģ"
      ],
      [
        "æ®ĭ",
        "ãģĹãģ¦ãĢģ"
      ],
      [
        "åģ¶æķ°",
        "ãģłãģĳ"
      ],
      [
        "]ĊĠĠĠĠ#Ġ",
        "åħĪéłŃ"
      ],
      [
        "æĬ",
        "ľ"
      ],
      [
        "ãĤĭĊĠĠĠĠresultĠ=Ġ",
        "output"
      ],
      [
        "ãģª",
        "ãģĮ"
      ],
      [
        "ãģªãģĮ",
        "ãĤī"
      ],
      [
        "ãĤĭĊĠĠĠĠoutputĠ=Ġ",
        "result"
      ],
      [
        "xĠ%Ġ2Ġ",
        "==Ġ0"
      ],
      [
        "¸Ľ",
        "ãĤī"
      ],
      [
        "ãģ",
        "ĵ"
      ],
      [
        "çµ¶å¯¾åĢ¤",
        "ãĤĴè¨Īç®Ĺ"
      ],
      [
        "è",
        "¿"
      ],
      [
        "xĠ%Ġ2Ġ",
        "!=Ġ0"
      ],
      [
        "returnĠ",
        "["
      ],
      [
        "valueĠ%Ġ2Ġ",
        "==Ġ0"
      ],
      [
        "ãģĹ",
        "ãģ¦ãģ"
      ],
      [
        "valueĠ%Ġ2Ġ",
        "!=Ġ0"
      ],
      [
        "ãģ§",
        "ãģĤ"
      ],
      [
        "ãģĪ",
        "ãĤĭåĢ¤"
      ],
      [
        "ãģĭãĤīkãĤĴå¼",
        "ķãģį"
      ],
      [
        "ãģ",
        "°"
      ],
      [
        "ãģ",
        "Ľ"
      ],
      [
        "ãģ®ãģ¿",
        "ãĤĴæĬ½åĩº"
      ],
      [
        "kä»¥ä¸ĭ",
        "ãģ®"
      ],
      [
        "ãģ°",
        "ãģĽ"
      ],
      [
        "ä¸¦",
        "ãģ°ãģĽ"
      ],
      [
        "ıãģ",
        "ķãģ"
      ],
      [
        "æ®ĭ",
        "ãģĻsolveéĸ¢æķ°ãĤĴæĽ¸"
      ],
      [
        "éĽ",
        "¢"
      ],
      [
        "ãĤĴä¿ĿæĮģ",
        "ãģĹãģ¦ãĢģ"
      ],
      [
        "æŃ£è²ł",
        "ãĤĴåıįè»¢"
      ],
      [
        "ãĤĴ",
        "ãģ²ãģ£ãģıãĤĬ"
      ],
      [
        "è¦ģç´",
        "łãģ«"
      ],
      [
        "ãģĻ",
        "ãĤĪãģĨ"
      ],
      [
        "åĢ¤ãĤĴæĺĩ",
        "éłĨãģ«ä¸¦ãģ¹"
      ],
      [
        "ãģ",
        "ķ"
      ],
      [
        "xsĠifĠ",
        "0Ġ==Ġ"
      ],
      [
        "ãĤĴæĬ",
        "ľ"
      ],
      [
        "çµ",
        "ŀ"
      ],
      [
        "ıãģķãģ",
        "ª"
      ],
      [
        "0Ġ<Ġ",
        "value"
      ],
      [
        "ãĤĴå¤īãģĪ",
        "ãģ¦ãĢģ"
      ],
      [
        "ãĤĴäºĮä¹Ĺ",
        "ãģĹãģ¦ãĢģ"
      ],
      [
        "éļĶçķª",
        "ãģ«"
      ],
      [
        "æ®ĭ",
        "ãģĹãĢģ"
      ],
      [
        "İ",
        "éĽĨ"
      ],
      [
        "kä»¥ä¸ĭãģ®",
        "ãĤĤãģ®"
      ],
      [
        "ãģ«kãĤĴãģĭãģĳ",
        "ãģ¦ãĢģ"
      ],
      [
        "ãĤĴåĪĩãĤĬ",
        "æĬľ"
      ],
      [
        "è¿",
        "Ķ"
      ],
      [
        "kĠ<Ġ",
        "value"
      ],
      [
        "ãĤĴæ",
        "ĭ¾"
      ],
      [
        "0Ġ>Ġ",
        "value"
      ],
      [
        "kĠ>=Ġ",
        "value"
      ],
      [
        "ãģĵ",
        "ãģ¨"
      ],
      [
        "ãģķãģĽ",
        "ãģ¦ãĢģ"
      ],
      [
        "x",
        "]ĊĠĠĠĠresult"
      ],
      [
        "ãĤĴ2åĢį",
        "ãģ«"
      ],
      [
        "kä»¥ä¸Ĭ",
        "ãģ§ãģĤ"
      ],
      [
        "ãĤĭĊĠĠĠĠresultĠ=Ġ",
        "xs"
      ],
      [
        "æľ«å°¾",
        "kåĢĭ"
      ],
      [
        "éłĨåºıãĤĴåıįè»¢",
        "ãģķãģĽ"
      ],
      [
        "Ĭ",
        "ãģısolveéĸ¢æķ°ãĤĴæĽ¸"
      ],
      [
        "x",
        "]ĊĠĠĠĠoutput"
      ],
      [
        "kĠ>Ġ",
        "value"
      ],
      [
        ",Ġreverse=False",
        ")ĊĠĠĠĠ#Ġ"
      ],
      [
        "ãĤĴåĪĨ",
        "ãģĳ"
      ],
      [
        "ãģ«kãĤĴä¹Ĺãģĺ",
        "ãģ¦ãĢģ"
      ],
      [
        "åĪĹ",
        "ãģ®"
      ],
      [
        "ãĤĤ",
        "ãģ®ãģ"
      ],
      [
        "ãĤĤãģ®ãģ",
        "¸"
      ],
      [
        "ãĤĬ",
        "åĩº"
      ],
      [
        "åıĸãĤĬãĢģ",
        "è²łãģ®æķ°"
      ],
      [
        ")",
        ")ĊĠĠĠĠ#Ġ"
      ],
      [
        "å",
        "¼"
      ],
      [
        "kãĤĴ",
        "ãģ²"
      ],
      [
        "äºĮä¹Ĺ",
        "ãģĻãĤĭĊĠĠĠĠoutput"
      ],
      [
        "æĮ",
        "Ļ"
      ],
      [
        "åıĸãĤĬãĢģ",
        "kä»¥ä¸Ĭãģ®åĢ¤"
      ],
      [
        "]",
        "ĠifĠ"
      ],
      [
        "3åĢį",
        "ãģĻãĤĭĊĠĠĠĠresult"
      ],
      [
        "3åĢį",
        "ãģĻãĤĭĊĠĠĠĠoutput"
      ],
      [
        "åıĸãĤĬãĢģ",
        "åĲĦè¦ģç´łãģ®"
      ],
      [
        "ãĤĭĊĠĠĠĠoutputĠ=Ġ",
        "xs"
      ],
      [
        "äºĮä¹Ĺ",
        "ãģĻãĤĭĊĠĠĠĠresult"
      ],
      [
        "ç®Ĺ",
        "ãģĹãģ¦ãĢģ"
      ],
      [
        "kĠ<=Ġ",
        "value"
      ],
      [
        "ãĤĴæĬľ",
        "ãģį"
      ],
      [
        "ãģ«",
        "ãģĹãĢģ"
      ],
      [
        "ä¸¦ãģ³",
        "ãĤĴéĢĨ"
      ],
      [
        "ķãģĦ",
        "ãģ¦ãĢģ"
      ],
      [
        "ãĤĴæ®ĭ",
        "ãģĻãĤĪãģĨ"
      ],
      [
        "kãĤĪãĤĬãĤĤ",
        "å¤§ãģįãģªåĢ¤"
      ],
      [
        "ķãģı",
        "solveéĸ¢æķ°ãĤĴæĽ¸"
      ],
      [
        "åıĸãĤĬãĢģ",
        "kä»¥ä¸Ĭãģ®"
      ],
      [
        "¶",
        "ļ"
      ],
      [
        "*Ġ3ĠforĠvalueĠinĠ",
        "result"
      ],
      [
        "2åĢį",
        "ãģĻãĤĭĊĠĠĠĠresult"
      ],
      [
        "ãģłãģĳãĤĴæ®ĭãģĻ",
        "ãĤĪãģĨ"
      ],
      [
        ",Ġreverse=True",
        ")ĊĠĠĠĠ#Ġ"
      ],
      [
        "åĪĹ",
        "æĮĻ"
      ],
      [
        "ç",
        "¶ļ"
      ],
      [
        "*Ġ3ĠforĠvalueĠinĠ",
        "output"
      ],
      [
        "è¦ģç´",
        "łãģ®"
      ],
      [
        "kãĤĴæ",
        "¸ĽãĤī"
      ],
      [
        "ãĤĴä¿ĿæĮģ",
        "ãģĻ"
      ],
      [
        "ãĤĴåıĸãĤĬ",
        "åĩºãģĹãģ¦ãĢģ"
      ],
      [
        "ãģ",
        "¾"
      ],
      [
        "Ġ=Ġ[-xĠforĠxĠinĠ",
        "result"
      ],
      [
        "ãĤĴåĪĩãĤĬ",
        "éĽ¢"
      ],
      [
        "xs",
        "]ĊĠĠĠĠresult"
      ],
      [
        "2åĢį",
        "ãģĻãĤĭĊĠĠĠĠoutput"
      ],
      [
        "ãģ«kãĤĴåĬłãģĪ",
        "ãģ¦ãĢģ"
      ],
      [
        "ãģ«",
        "çµŀ"
      ],
      [
        "Ġ=Ġ[-xĠforĠxĠinĠ",
        "output"
      ],
      [
        "sorted(result",
        ")[::-1"
      ],
      [
        "ãĢģãģĿãģ®å¾Į",
        "ãģ§"
      ],
      [
        "sorted(output",
        ")[::-1"
      ],
      [
        "xs",
        "]ĊĠĠĠĠoutput"
      ],
      [
        "ãĥªãĤ¹ãĥĪ",
        "ãģ®"
      ],
      [
        "åıĸãĤĬãĢģ",
        "åĲĦãĥĩãĥ¼ãĤ¿"
      ],
      [
        "åħĪéłŃ",
        "kåĢĭ"
      ],
      [
        "å",
        "ī"
      ],
      [
        "å°",
        "ıãģķãģª"
      ],
      [
        "kä»¥ä¸Ĭãģ§ãģĤ",
        "ãĤĭ"
      ],
      [
        "kãĤĴè¶",
        "ħ"
      ],
      [
        "å°ıãģķãģª",
        "åĢ¤"
      ],
      [
        "æķ°",
        "åĪĹãģ®"
      ],
      [
        "ãĤĴå¹³æĸ¹",
        "ãģĹãģ¦ãĢģ"
      ],
      [
        "ãģłãģĳãĤĴæĬ½åĩº",
        "ãģĹãĢģ"
      ],
      [
        "¢",
        "º"
      ],
      [
        "«",
        "¯"
      ],
      [
        "ç",
        "«¯"
      ],
      [
        "ãĤĴç",
        "¢º"
      ],
      [
        "ãĤĴ",
        "3åĢį"
      ],
      [
        "ãĤĴç¢º",
        "ä¿Ŀ"
      ],
      [
        "åī",
        "į"
      ],
      [
        "åıĸãĤĬãĢģ",
        "åĢ¤ãĤĴéĻį"
      ],
      [
        "kĠ>Ġ",
        "value:ĊĠĠĠĠĠĠĠĠĠĠĠĠ"
      ],
      [
        "®",
        "ãģĹ"
      ],
      [
        "·",
        "®ãģĹ"
      ],
      [
        "kãĤĴå",
        "·®ãģĹ"
      ],
      [
        "ãģ",
        "»"
      ],
      [
        "valueĠ*",
        "*Ġ2"
      ],
      [
        "*",
        "*Ġ2"
      ],
      [
        "æķ´æķ°ãĥªãĤ¹ãĥĪxs",
        "ãģ®"
      ],
      [
        "ãģ»",
        "ãģĨ"
      ],
      [
        "0Ġ<Ġ",
        "x:ĊĠĠĠĠĠĠĠĠĠĠĠĠ"
      ],
      [
        "kĠ>=Ġ",
        "x:ĊĠĠĠĠĠĠĠĠĠĠĠĠ"
      ],
      [
        "kãĤĪãĤĬãĤĤ",
        "å°ıãģķãģĦåĢ¤"
      ],
      [
        "kĠ<Ġ",
        "x:ĊĠĠĠĠĠĠĠĠĠĠĠĠ"
      ],
      [
        "ãģ",
        "¤"
      ],
      [
        "valueĠ",
        "*Ġ"
      ],
      [
        "0Ġ>Ġ",
        "x:ĊĠĠĠĠĠĠĠĠĠĠĠĠ"
      ],
      [
        "åıĸãĤĬãĢģ",
        "è²łãģ®åĢ¤"
      ],
      [
        "kãĤĴå·®ãģĹ",
        "å¼"
      ],
      [
        "0Ġ>Ġ",
        "value:ĊĠĠĠĠĠĠĠĠĠĠĠĠ"
      ],
      [
        "0Ġ<Ġ",
        "value:ĊĠĠĠĠĠĠĠĠĠĠĠĠ"
      ],
      [
        "ãĤĴåıĸ",
        "ãģ£ãģ¦ãĢģ"
      ],
      [
        "ãĤĴä¿ĿæĮģ",
        "ãģĹãĢģ"
      ],
      [
        "output",
        "[::-1"
      ],
      [
        "kĠ>Ġ",
        "x:ĊĠĠĠĠĠĠĠĠĠĠĠĠ"
      ],
      [
        "kĠ<Ġ",
        "value:ĊĠĠĠĠĠĠĠĠĠĠĠĠ"
      ],
      [
        "kãĤĪãĤĬãĤĤ",
        "å¤§ãģįãģĦåĢ¤"
      ],
      [
        "ç«¯",
        "kåĢĭ"
      ],
      [
        "ãĤĤãģ®ãģĭãĤī",
        "å¤§ãģįãģĦ"
      ],
      [
        "0Ġ==Ġ",
        "xĠ%"
      ],
      [
        "kãĤĴè¶",
        "³"
      ],
      [
        "ãģªãģĮãĤī",
        "ãĢģ"
      ],
      [
        "list(reversed(xs",
        "))ĊĠĠĠĠ"
      ],
      [
        "0Ġ==Ġ",
        "xĠ%Ġ2"
      ],
      [
        "valueĠ%",
        "Ġk:ĊĠĠĠĠĠĠĠĠĠĠĠĠ"
      ],
      [
        "result",
        "[::-1"
      ],
      [
        "kãģ®åĢįæķ°",
        "ãģłãģĳ"
      ],
      [
        "æŃ£ãģ®åĢ¤",
        "ãģłãģĳ"
      ],
      [
        "kãĤĪãĤĬ",
        "å¤§ãģįãģªåĢ¤"
      ],
      [
        "kĠ<=Ġ",
        "x:ĊĠĠĠĠĠĠĠĠĠĠĠĠ"
      ],
      [
        "Ġk",
        "]ĊĠĠĠĠ#ĠåĲĦè¦ģç´łãĤĴ"
      ],
      [
        "valueĠ%Ġ2",
        ":ĊĠĠĠĠĠĠĠĠĠĠĠĠ"
      ],
      [
        "åıĸãĤĬãĢģ",
        "åĲĦåĢ¤"
      ],
      [
        "é",
        "ħ"
      ],
      [
        "éħ",
        "į"
      ],
      [
        "ä¸¦ãģ°ãģĽ",
        "ãģ¦ãĢģ"
      ],
      [
        "åĲĦæķ°",
        "ãģ®"
      ],
      [
        "[:k",
        "]ĊĠĠĠĠreturnĠresultĊ"
      ],
      [
        "ãĤĴå¼ķãģį",
        "ç¶ļ"
      ],
      [
        "ãĤ¼ãĥŃ",
        "ãģłãģĳãĤĴæ®ĭãģĻ"
      ],
      [
        "ãģĻãģ¹ãģ¦ãģ®",
        "æķ°ãģ®"
      ],
      [
        "æ",
        "ŀ"
      ],
      [
        "Ĳ",
        "æŀ"
      ],
      [
        "çµ",
        "Ĳæŀ"
      ],
      [
        "çµĲæŀ",
        "ľ"
      ],
      [
        "åīį",
        "kåĢĭ"
      ],
      [
        "ãģ¶",
        "solveéĸ¢æķ°ãĤĴæĽ¸"
      ],
      [
        "ãģĿãĤĮãģŀãĤĮ",
        "ãģ®æķ°"
      ],
      [
        "ãĤĴåı",
        "İéĽĨ"
      ],
      [
        "ãģ§",
        "ãĢģ"
      ],
      [
        "kãĤĴè¶ħ",
        "ãģĪãĤĭåĢ¤"
      ],
      [
        "[:k",
        "]ĊĠĠĠĠreturnĠoutputĊ"
      ],
      [
        "å",
        "Ľ"
      ],
      [
        "ä¸Ĭ",
        "åĽ"
      ],
      [
        "ä¸ĬåĽ",
        "ŀ"
      ],
      [
        "kãĤĴ",
        "ä¸ĬåĽŀ"
      ],
      [
        "ãĤĴæĭ¾",
        "ãģ£ãģ¦ãĢģ"
      ],
      [
        "ãĤĴä¿ĿåŃĺ",
        "ãģĹãģ¦ãĢģ"
      ],
      [
        "ãģĭãĤīkãĤĴå¼ķãģį",
        "ãĢģ"
      ],
      [
        "]ĊĠĠĠĠresult",
        "Ġ=Ġ[valueĠ"
      ],
      [
        "ä½",
        "ĵ"
      ],
      [
        ")",
        ")ĊĠĠĠĠreturnĠoutputĊ"
      ],
      [
        "æŃ£è²",
        "łãĤĴ"
      ],
      [
        "åħ¨",
        "ä½ĵ"
      ],
      [
        "outputĠ=Ġ",
        "sorted(result"
      ],
      [
        "ãĤĴåĪĩãĤĬåĩº",
        "ãģĻ"
      ],
      [
        "ãģ»ãģĨ",
        "ãģĭãĤī"
      ],
      [
        ")",
        ")ĊĠĠĠĠreturnĠresultĊ"
      ],
      [
        "ãĤĴåĪĩãĤĬæĬľ",
        "ãģĦãģ¦ãĢģ"
      ],
      [
        "ãĤĴ",
        "ä½"
      ],
      [
        "ãĤĴæ®ĭãģĹãģ¦ãģ",
        "ĬãģįãĢģ"
      ],
      [
        "resultĠ=Ġ",
        "sorted(output"
      ],
      [
        "ãĤĴåıĸå¾Ĺ",
        "ãģĹãģ¦ãĢģ"
      ],
      [
        "åħ¨ãģ¦ãģ®",
        "æķ°"
      ],
      [
        "ĠkĠforĠxĠinĠ",
        "xs]ĊĠĠĠĠ#Ġ"
      ],
      [
        "Ļ",
        "¤"
      ],
      [
        "ãģĭãĤī",
        "kãĤĴãģ²"
      ],
      [
        "åħĪéłŃ",
        "ãģ®kåĢĭ"
      ],
      [
        "ãĤĴãģ²ãģ£ãģıãĤĬ",
        "ãģĭãģĪ"
      ],
      [
        "sorted(xs",
        ")[::-1"
      ],
      [
        "ãĤĬ",
        "åĩºãģĹãģ¦ãĢģ"
      ],
      [
        "ãģĭãĤī",
        "kãĤĴå·®ãģĹå¼"
      ],
      [
        "ãĤĴè",
        "Ńĺ"
      ],
      [
        "ãĤĴèŃĺ",
        "åĪ¥"
      ],
      [
        "åĢ¤ãĤĴéĻį",
        "éłĨãģ«"
      ],
      [
        "]ĊĠĠĠĠoutput",
        "Ġ=Ġ[valueĠ"
      ],
      [
        "ãģłãģĳãĤĴéģ¸ãģ³",
        "åĩº"
      ],
      [
        "valueĠ*Ġ",
        "value"
      ],
      [
        "xs:ĊĠĠĠĠĠĠĠĠifĠ",
        "xĠ%Ġ2Ġ"
      ],
      [
        "ãĤĴé",
        "Ļ¤"
      ],
      [
        "ãģ®ãģ¿ãĤĴæĬ½åĩº",
        "ãģĻ"
      ],
      [
        "å¥ĩæķ°",
        "ãģłãģĳãĤĴæ®ĭãģĻ"
      ],
      [
        "ãĤģ",
        "ãģ¦ãĢģ"
      ],
      [
        "ãģĹãģ¦ãģ",
        "ĬãģįãĢģ"
      ],
      [
        "ä¸Ĭ",
        "ãģ§ãĢģ"
      ],
      [
        "ãģķãģĽ",
        "ãĢģ"
      ],
      [
        "åħ¨ãģ¦ãģ®",
        "è¦ģç´łãĤĴ"
      ],
      [
        "è¦ģç´łãģ«",
        "kãĤĴãģĭãģĳ"
      ],
      [
        "æĬ",
        "½åĩº"
      ],
      [
        "ãģĿãĤĮãģŀãĤĮ",
        "ãģ®"
      ],
      [
        "ãĤĵãģ§",
        "ãĢģ"
      ],
      [
        "äºĮä¹Ĺ",
        "ãģĻãĤĭĊĠĠĠĠ"
      ],
      [
        ">",
        "Ġk]ĊĠĠĠĠ#Ġ"
      ],
      [
        "ãĤ¼ãĥŃ",
        "ãģ®ãģ¿ãĤĴæ®ĭ"
      ],
      [
        "ľ",
        "Ģ"
      ],
      [
        "ãĤĴæĬľãģį",
        "åĩºãģĹãģ¦ãĢģ"
      ],
      [
        "åĢ¤ãĤĴéĻį",
        "éłĨãģ«ä¸¦ãģ¹"
      ],
      [
        "ãģ®åĢ¤",
        "ãĤĴä¸īåĢį"
      ],
      [
        "ľĢ",
        "ãĤĤ"
      ],
      [
        "ãģŁ",
        "ä¸Ĭãģ§ãĢģ"
      ],
      [
        "Ģ",
        "ī"
      ],
      [
        "é",
        "Ģī"
      ],
      [
        "İ",
        "ãģĦ"
      ],
      [
        "2åĢį",
        "ãģ«"
      ],
      [
        "Ľ",
        "éĢī"
      ],
      [
        "Ń",
        "ĽéĢī"
      ],
      [
        "ãģĨ",
        "solveéĸ¢æķ°ãĤĴæĽ¸"
      ],
      [
        "3åĢį",
        "ãģĻãĤĭĊĠĠĠĠ"
      ],
      [
        "<",
        "Ġk"
      ],
      [
        "åıĸãĤĬ",
        "åĩºãģĹãģ¦ãĢģ"
      ],
      [
        "åĢ¤ãĤĴæ",
        "ľĢãĤĤ"
      ],
      [
        "kãĤĪãĤĬ",
        "å°ıãģķãģĦåĢ¤"
      ],
      [
        "ãĤĴç",
        "ŃĽéĢī"
      ],
      [
        ">",
        "Ġk"
      ],
      [
        "åıĸãĤĬãĢģ",
        "éļĶçķªãģ§"
      ],
      [
        "kãĤĴæ¸ĽãĤī",
        "ãģĹãģ¦ãĢģ"
      ],
      [
        "ãģ«kãĤĴ",
        "è¶"
      ],
      [
        "ãģ«kãĤĴè¶",
        "³"
      ],
      [
        "resultĠifĠ",
        "kĠ>=Ġ"
      ],
      [
        "outputĠifĠ",
        "kĠ<Ġ"
      ],
      [
        "çµ",
        "Ĥ"
      ],
      [
        "ãĤĴç¢ºä¿Ŀ",
        "ãģĹãģ¦ãĢģ"
      ],
      [
        "ª",
        "ä¹Ĺ"
      ],
      [
        "ĩ",
        "ªä¹Ĺ"
      ],
      [
        "ãĤĴè",
        "ĩªä¹Ĺ"
      ],
      [
        "<",
        "Ġk]ĊĠĠĠĠ#Ġ"
      ],
      [
        "outputĠifĠ",
        "kĠ>=Ġ"
      ],
      [
        "resultĠifĠ",
        "kĠ>Ġ"
      ],
      [
        "outputĠifĠ",
        "0Ġ<Ġ"
      ],
      [
        "resultĠifĠ",
        "0Ġ<Ġ"
      ],
      [
        "resultĠifĠ",
        "kĠ<Ġ"
      ],
      [
        "åĲĦæķ°",
        "åĢ¤"
      ],
      [
        "éłĨåºı",
        "ãĤĴéĻį"
      ],
      [
        "2åĢį",
        "ãģĻãĤĭĊĠĠĠĠ"
      ],
      [
        "output",
        "]ĊĠĠĠĠoutput"
      ],
      [
        "outputĠifĠ",
        "kĠ>Ġ"
      ],
      [
        "ä¸¦ãģ³",
        "ãģĭãģĪ"
      ],
      [
        "ãĤĴéģ¸ãĤĵãģ§",
        "æ®ĭãģĹãĢģ"
      ],
      [
        "result",
        "]ĊĠĠĠĠresult"
      ],
      [
        "outputĠifĠ",
        "0Ġ>Ġ"
      ],
      [
        "k",
        "ãģ§"
      ],
      [
        "å°ıãģķãģĦ",
        "ãĤĤãģ®ãģĭãĤī"
      ],
      [
        ">",
        "Ġk]ĊĠĠĠĠreturnĠoutputĊ"
      ],
      [
        "resultĠifĠ",
        "0Ġ>Ġ"
      ],
      [
        "ãĤĴåĪĩãĤĬåĩº",
        "ãģĹãĢģ"
      ],
      [
        "outputĠifĠ",
        "kĠ<=Ġ"
      ],
      [
        "ç¬¦åı·ãĤĴåıįè»¢",
        "ãģĹãĢģ"
      ],
      [
        "result",
        "]ĊĠĠĠĠ#Ġ"
      ],
      [
        "resultĠifĠ",
        "kĠ<=Ġ"
      ],
      [
        "Ġ=Ġ[xĠ*",
        "ĠkĠforĠxĠinĠxs"
      ],
      [
        "ãģ¦ãĢģ",
        "ãģĿãģ®å¾Į"
      ],
      [
        "å",
        "Ĭ"
      ],
      [
        ">Ġ0",
        "]ĊĠĠĠĠreturnĠoutputĊ"
      ],
      [
        "ãģĹãģ¦",
        "æ®ĭãģĹãģ¦ãĢģ"
      ],
      [
        "ãģ¨",
        "ãģ£ãģ¦ãĢģ"
      ],
      [
        "ãģŁå¾Į",
        "ãģ«"
      ],
      [
        "kãĤĴ",
        "ä¹Ĺ"
      ],
      [
        "ãĤĴãģ²ãģ£ãģıãĤĬ",
        "è¿Ķ"
      ],
      [
        "ãģ",
        "¸"
      ],
      [
        "resultĠifĠ0Ġ==Ġ",
        "xĠ%"
      ],
      [
        "åħ",
        "ĥ"
      ],
      [
        "ãĤĴ",
        "kãģ§"
      ],
      [
        "æŃ£è²łãĤĴåıįè»¢",
        "ãģķãģĽ"
      ],
      [
        "ãģ«",
        "kãĤĴæİĽãģĳ"
      ],
      [
        ">Ġ0",
        "]ĊĠĠĠĠreturnĠresultĊ"
      ],
      [
        "resultĠifĠxĠ",
        "%ĠkĠ==Ġ0"
      ],
      [
        "ãĥ",
        "¬"
      ],
      [
        "¯",
        "ãĥĪ"
      ],
      [
        "»",
        "ãĥ¬"
      ],
      [
        "ãĤ",
        "¯ãĥĪ"
      ],
      [
        "ãĤ",
        "»ãĥ¬"
      ],
      [
        "ãĤĴ",
        "ãĤ»ãĥ¬"
      ],
      [
        "resultĠifĠxĠ",
        "<=Ġk"
      ],
      [
        "ãĤĴãĤ»ãĥ¬",
        "ãĤ¯ãĥĪ"
      ],
      [
        "outputĠifĠvalueĠ",
        "<=Ġk"
      ],
      [
        "ãĤĴäºĮä¹Ĺ",
        "ãģĻ"
      ],
      [
        "0Ġ==Ġ",
        "x:ĊĠĠĠĠĠĠĠĠĠĠĠĠ"
      ],
      [
        "ãĤĴæĬ½åĩº",
        "ãģĻ"
      ],
      [
        "ãĤĤãģ®ãģ¸",
        "ä¸¦ãģ¹ãģ¦ãĢģ"
      ],
      [
        "åĪĹæĮĻ",
        "ãģĹãģ¦ãĢģ"
      ],
      [
        "x",
        "]ĊĠĠĠĠ#ĠåĲĦè¦ģç´łãĤĴ"
      ],
      [
        "ķãģıĊĠĠĠĠoutput",
        "Ġ=Ġ[xĠ-"
      ],
      [
        "ãģłãģĳãĤĴæ®ĭãģĻ",
        "ãģĵãģ¨"
      ],
      [
        "ãĤĴå¼ķãģįç¶ļ",
        "ãģį"
      ],
      [
        "-",
        "value"
      ],
      [
        "valueĠ",
        ">Ġ0:ĊĠĠĠĠĠĠĠĠĠĠĠĠ"
      ],
      [
        "åģ¶æķ°",
        "ãģłãģĳãĤĴæ®ĭãģĻ"
      ],
      [
        "åħ¨ãģ¦ãģ®",
        "éłħçĽ®"
      ],
      [
        "valueĠ",
        ">Ġk:ĊĠĠĠĠĠĠĠĠĠĠĠĠ"
      ],
      [
        "output",
        "]ĊĠĠĠĠ#Ġ"
      ],
      [
        "outputĠifĠxĠ",
        "<Ġ0"
      ],
      [
        "éłĨåºıãĤĴéĢĨ",
        "è»¢"
      ],
      [
        "åĢ¤ãģ®",
        "æŃ£è²ł"
      ],
      [
        "outputĠifĠ0Ġ==Ġ",
        "valueĠ%"
      ],
      [
        ">",
        "Ġk]ĊĠĠĠĠreturnĠresultĊ"
      ],
      [
        "ãģ«ãģĹãģ¦ãĢģ",
        "ãģĿãģ®å¾Į"
      ],
      [
        "ãģĻãĤĭĊĠĠĠĠresult",
        "Ġ=Ġ[-"
      ],
      [
        "ãĤĴåĪĩãĤĬ",
        "æĽ¿ãģĪ"
      ],
      [
        "ãĤ¼ãĥŃ",
        "ãĤĴæĬ½åĩº"
      ],
      [
        "valueĠ",
        "<Ġk:ĊĠĠĠĠĠĠĠĠĠĠĠĠ"
      ],
      [
        "*Ġ2ĠforĠvalueĠinĠ",
        "xs"
      ],
      [
        "outputĠifĠxĠ",
        "%ĠkĠ==Ġ0"
      ],
      [
        "éłĨåºıãĤĴåıįè»¢",
        "ãģĹãĢģ"
      ],
      [
        "outputĠifĠxĠ",
        "==Ġ0"
      ],
      [
        "æ",
        "Ī"
      ],
      [
        "ķãģıĊĠĠĠĠresult",
        "Ġ=Ġ[xĠ-"
      ],
      [
        "è",
        "¨Īç®Ĺ"
      ],
      [
        "æĪ",
        "Ĳ"
      ],
      [
        "ãĤĴåĪĩãĤĬéĽ¢",
        "ãģĹãģ¦ãĢģ"
      ],
      [
        "resultĠifĠxĠ",
        "==Ġ0"
      ],
      [
        "outputĠifĠvalueĠ",
        "==Ġ0"
      ],
      [
        "<",
        "Ġk]ĊĠĠĠĠreturnĠoutputĊ"
      ],
      [
        "åĲĦè¦ģç´łãĤĴ",
        "ä¸īåĢį"
      ],
      [
        "kãĤĴåĬ",
        "ł"
      ],
      [
        "æŃ£ãģ®åĢ¤",
        "ãģ®ãģ¿"
      ],
      [
        "ãģĻãĤĭĊĠĠĠĠoutput",
        "Ġ=Ġ[-"
      ],
      [
        "å",
        "¤īãģĪ"
      ],
      [
        "å¾Į",
        "ç«¯kåĢĭ"
      ],
      [
        "outputĠifĠxĠ",
        "<=Ġk"
      ],
      [
        "ãĤĴè¨Īç®Ĺ",
        "ãģĹãĢģ"
      ],
      [
        "valueĠ",
        "<Ġ0:ĊĠĠĠĠĠĠĠĠĠĠĠĠ"
      ],
      [
        "resultĠifĠxĠ",
        ">=Ġk"
      ],
      [
        "<",
        "Ġk]ĊĠĠĠĠreturnĠresultĊ"
      ],
      [
        "çķ",
        "Ļ"
      ],
      [
        "resultĠifĠvalueĠ",
        "<=Ġk"
      ],
      [
        "ãĤĴæ®ĭãģĻãĤĪãģĨ",
        "ãģ«"
      ],
      [
        "è¦ģç´",
        "łãģ"
      ],
      [
        "resultĠifĠ",
        "xĠ%Ġ2Ġ==Ġ0"
      ],
      [
        "łãģ«",
        "å¤īãģĪ"
      ],
      [
        "outputĠifĠ",
        "0Ġ!=ĠxĠ%Ġ2"
      ],
      [
        "outputĠifĠ0Ġ==Ġ",
        "xĠ%"
      ],
      [
        "æķ°ãģ®",
        "ç¬¦åı·"
      ],
      [
        "resultĠifĠvalueĠ",
        "<Ġ0"
      ],
      [
        "Ġ=Ġ[xĠ+",
        "ĠkĠforĠxĠinĠxs"
      ],
      [
        "ãĥªãĥ³ãĤ°",
        "ãģĹãģ¦ãĢģ"
      ],
      [
        "[",
        "xĠforĠxĠinĠ"
      ],
      [
        "éħį",
        "åĪĹ"
      ],
      [
        "resultĠifĠxĠ",
        "<Ġ0"
      ],
      [
        "åĢ¤ãģ®",
        "ç¬¦åı·"
      ],
      [
        "¡",
        "Į"
      ],
      [
        "å",
        "İ"
      ],
      [
        "åİ",
        "»"
      ],
      [
        "[",
        "valueĠforĠvalueĠinĠ"
      ],
      [
        "æŃ£è²łãĤĴ",
        "ãģ²ãģ£ãģıãĤĬ"
      ],
      [
        "éłĨãģ«",
        "ä¸¦ãģ°ãģĽãģ¦ãĢģ"
      ],
      [
        "resultĠifĠ",
        "xĠ%Ġ2Ġ!=Ġ0"
      ],
      [
        "resultĠifĠvalueĠ",
        "==Ġ0"
      ],
      [
        "æķ°ãģ®",
        "æŃ£è²ł"
      ],
      [
        "ãĤĴ",
        "çķĻ"
      ],
      [
        "ãģŁ",
        "åĢ¤"
      ],
      [
        "outputĠifĠxĠ",
        ">=Ġk"
      ],
      [
        "å",
        "Ń"
      ],
      [
        "ãĤĭĊĠĠĠĠoutput",
        "Ġ=Ġ[xĠ*"
      ],
      [
        "åŃ",
        "Ĺ"
      ],
      [
        "«",
        "ĺ"
      ],
      [
        "outputĠifĠ",
        "xĠ%Ġ2Ġ!=Ġ0"
      ],
      [
        "resultĠifĠvalueĠ",
        ">=Ġk"
      ],
      [
        "outputĠifĠ0Ġ==Ġ",
        "xĠ%Ġ2"
      ],
      [
        "ãĤĴé",
        "«ĺ"
      ],
      [
        "ãĤī",
        "ãģ«"
      ],
      [
        "ãĤĴå¼ķãģį",
        "åĩºãģĹãģ¦ãĢģ"
      ],
      [
        "åĢ¤",
        "ãĤĴé«ĺ"
      ],
      [
        "resultĠifĠ0Ġ==Ġ",
        "xĠ%Ġ2"
      ],
      [
        "å",
        "®"
      ],
      [
        "sorted(xs",
        ")ĊĠĠĠĠ"
      ],
      [
        "å®",
        "ļ"
      ],
      [
        "ãĤĭĊĠĠĠĠresult",
        "Ġ=Ġ[xĠ*"
      ],
      [
        "ãĤĴéĢĨ",
        "ãģ«"
      ],
      [
        "¹",
        "å®ļ"
      ],
      [
        "ī",
        "¹å®ļ"
      ],
      [
        "ãĤĴç",
        "ī¹å®ļ"
      ],
      [
        "ãģĭãĤīkãĤĴãģ²",
        "ãģĦãģ¦ãĢģ"
      ],
      [
        "outputĠifĠ",
        "xĠ%Ġ2Ġ==Ġ0"
      ],
      [
        "ãģķ",
        "ãĤīãģ«"
      ],
      [
        "outputĠifĠvalueĠ",
        ">=Ġk"
      ],
      [
        "éĸ¢æķ°",
        "ãĤĴå®Łè£"
      ],
      [
        "[:k",
        "]ĊĠĠĠĠ#Ġ"
      ],
      [
        "ä¸¦ãģ³",
        "ãĤĴåıįè»¢"
      ],
      [
        "ãĤĴéĻ¤",
        "åİ»"
      ],
      [
        "]ĊĠĠĠĠoutput",
        "Ġ=Ġ[valueĠ*"
      ],
      [
        "º",
        "åĪ¥"
      ],
      [
        "Į",
        "ºåĪ¥"
      ],
      [
        "ãģĻãģ¹ãģ¦ãģ®",
        "è¦ģç´łãģ®"
      ],
      [
        "ãĤĴæ®ĭ",
        "ãģĹãĢģãģĿãģ®å¾Į"
      ],
      [
        "ãģª",
        "ãģĦ"
      ],
      [
        "resultĠifĠ",
        "0Ġ<Ġvalue"
      ],
      [
        "ãĤĴå",
        "ĮºåĪ¥"
      ],
      [
        "åıĸãĤĬãĢģ",
        "kä»¥ä¸Ĭ"
      ],
      [
        "æŃ£ãģ®åĢ¤",
        "ãģ®ãģ¿ãĤĴæ®ĭ"
      ],
      [
        "åĪ",
        "ĩãĤĬ"
      ],
      [
        "Ġ=Ġ[xĠ-",
        "ĠkĠforĠxĠinĠxs"
      ],
      [
        "ķãģı",
        "éĸ¢æķ°solveãĤĴå®Łè£"
      ],
      [
        "outputĠifĠ0Ġ==Ġ",
        "value"
      ],
      [
        "Ĭ",
        "ãģĦãģ¦ãĢģ"
      ],
      [
        "åħ¨",
        "ãģ¦ãģ®åĢ¤"
      ],
      [
        "éłŃ",
        "kåĢĭ"
      ],
      [
        "ãĤĴåĪĩãĤĬ",
        "ãģ¨ãģ£ãģ¦ãĢģ"
      ],
      [
        "outputĠifĠvalueĠ",
        "<Ġ0"
      ],
      [
        "ãģ¦ãĢģ",
        "æľĢå¾Įãģ«"
      ],
      [
        "ãģłãģĳãĤĴéģ¸ãģ³",
        "ãĢģ"
      ],
      [
        "resultĠifĠ0Ġ==Ġ",
        "valueĠ%"
      ],
      [
        "ãĤĴè¨Īç®Ĺ",
        "ãģĻ"
      ],
      [
        "]",
        "]Ċ"
      ],
      [
        "resultĠifĠ",
        "0Ġ!=ĠxĠ%Ġ2"
      ],
      [
        "åıĸãĤĬãĢģ",
        "åĢ¤ãĤĴæĺĩ"
      ],
      [
        "ãĤĴè",
        "¡Į"
      ],
      [
        "[0:k",
        "]ĊĠĠĠĠresult"
      ],
      [
        "ãĤĴéģ¸ãģ³",
        "åĩº"
      ],
      [
        "ãĤĭĊĠĠĠĠresult",
        "Ġ=Ġ[xĠ+"
      ],
      [
        "ãģĻãģ¹ãģ¦ãģ®",
        "è¦ģç´ł"
      ],
      [
        "[:k",
        "]ĊĠĠĠĠresult"
      ],
      [
        "ãĤĴæ®ĭãģĹ",
        "ãģªãģĮãĤīãĢģ"
      ],
      [
        "[0:k",
        "]ĊĠĠĠĠ#Ġ"
      ],
      [
        "[::2",
        "]ĊĠĠĠĠ#Ġ"
      ],
      [
        "[0:k",
        "]ĊĠĠĠĠoutput"
      ],
      [
        "outputĠifĠ",
        "0Ġ>Ġvalue"
      ],
      [
        "resultĠifĠ",
        "kĠ<Ġvalue"
      ],
      [
        "[:k",
        "]ĊĠĠĠĠoutput"
      ],
      [
        "çµ¶å¯¾åĢ¤",
        "ãĤĴåıĸ"
      ],
      [
        "outputĠifĠ",
        "0Ġ<Ġvalue"
      ],
      [
        "ãĤĭĊĠĠĠĠoutput",
        "Ġ=Ġ[xĠ+"
      ],
      [
        "valueĠ-",
        "Ġk]ĊĠĠĠĠ#Ġ"
      ],
      [
        "*",
        "Ġk]ĊĠĠĠĠ#Ġ"
      ],
      [
        "ãģ¶",
        "solveéĸ¢æķ°ãĤĴå®Łè£"
      ],
      [
        "ľ",
        "æĪĲ"
      ],
      [
        "outputĠifĠ",
        "kĠ<Ġvalue"
      ],
      [
        "ãģ«",
        "ãģĹãģ¦ãģĭãĤī"
      ],
      [
        "resultĠifĠ0Ġ==Ġ",
        "value"
      ],
      [
        "åıĸãĤĬãĢģ",
        "çı¾åľ¨ãģ®"
      ],
      [
        "resultĠifĠ",
        "kĠ>=Ġvalue"
      ],
      [
        "ãĤĬåĩº",
        "ãģĹãĢģ"
      ],
      [
        "ç",
        "Ĳ"
      ],
      [
        "çĲ",
        "Ĩ"
      ],
      [
        "åı",
        "İéĽĨ"
      ],
      [
        "åĢ¤ãĤĴå",
        "¹³æĸ¹"
      ],
      [
        "ãĤĴä½",
        "ľæĪĲ"
      ],
      [
        "[-k:",
        "]ĊĠĠĠĠ#Ġ"
      ],
      [
        "valueĠ*",
        "Ġk]ĊĠĠĠĠ#Ġ"
      ],
      [
        "ãĤĴä¿ĿåŃĺ",
        "ãģĹãĢģ"
      ],
      [
        "valueĠ-",
        "Ġk"
      ],
      [
        "å¥ĩæķ°",
        "ãģłãģĳ"
      ],
      [
        "-",
        "Ġk]ĊĠĠĠĠ#Ġ"
      ],
      [
        "[0::2",
        "]ĊĠĠĠĠ#Ġ"
      ],
      [
        "resultĠifĠ",
        "0Ġ>Ġvalue"
      ],
      [
        "ãģ¦",
        "æ®ĭãģĹãģ¦ãĢģ"
      ],
      [
        "xsĠifĠvalueĠ",
        ">Ġ0"
      ],
      [
        "xsĠifĠvalueĠ",
        "<Ġ0"
      ],
      [
        "]ĊĠĠĠĠresult",
        "Ġ=Ġ[valueĠ*"
      ],
      [
        "outputĠifĠ",
        "kĠ>=Ġvalue"
      ],
      [
        "ãģłãģĳãĤĴæ®ĭ",
        "ãģĹ"
      ],
      [
        "ãģªãģĦ",
        "åĢ¤"
      ],
      [
        "[-k::",
        "]ĊĠĠĠĠ#Ġ"
      ],
      [
        "outputĠifĠ",
        "kĠ>Ġvalue"
      ],
      [
        "ãģķ",
        "ãģ«"
      ],
      [
        "kãĤĪãĤĬãĤĤ",
        "å°ıãģķãģªåĢ¤"
      ],
      [
        "åıĸãĤĬãĢģ",
        "æľ«å°¾kåĢĭ"
      ],
      [
        "resultĠifĠ",
        "kĠ>Ġvalue"
      ],
      [
        "ãĤĴéģ¸ãģ³",
        "ãĢģ"
      ],
      [
        "åģ¶æķ°",
        "ãģ®ãģ¿ãĤĴæ®ĭ"
      ],
      [
        "xsĠifĠvalueĠ",
        "<=Ġk"
      ],
      [
        "*",
        "Ġk"
      ],
      [
        "ķãģį",
        "ãĢģ"
      ],
      [
        "åĲĦè¦ģç´łãĤĴäºĮä¹Ĺ",
        "ãģĻ"
      ],
      [
        "ç¬¦åı·ãĤĴåıįè»¢",
        "ãģĻ"
      ],
      [
        "İãģĦ",
        "éłĨãģ«ä¸¦ãģ¹ãģ¦ãĢģ"
      ],
      [
        "æ",
        "ı"
      ],
      [
        "æı",
        "Ľ"
      ],
      [
        "-",
        "Ġk"
      ],
      [
        "kä»¥ä¸Ĭãģ®",
        "ãĥĩãĥ¼ãĤ¿"
      ],
      [
        "xsĠifĠ0Ġ==Ġ",
        "valueĠ%Ġ2"
      ],
      [
        "ãģ®æķ°",
        "ãĤĴä¸īåĢį"
      ],
      [
        "ãģ®ãģ¿",
        "ãĤĴæĬ½åĩºãģĹãĢģ"
      ],
      [
        "åħ¨",
        "ãģ¦"
      ],
      [
        "ãģ®",
        "è¦ģç´ł"
      ],
      [
        "[-k:",
        "]ĊĠĠĠĠoutput"
      ],
      [
        "åıĸãĤĬãĢģåħĪéłŃ",
        "kåĢĭ"
      ],
      [
        "ãĤĴèĩªä¹Ĺ",
        "ãģĹãģ¦ãĢģ"
      ],
      [
        "ãģ«çµŀ",
        "ãģ£ãģ¦ãĢģ"
      ],
      [
        "outputĠifĠ",
        "kĠ<=Ġvalue"
      ],
      [
        "xs:ĊĠĠĠĠĠĠĠĠifĠ",
        "kĠ>=Ġ"
      ],
      [
        "xs",
        "]ĊĠĠĠĠ#ĠåĲĦè¦ģç´łãĤĴ"
      ],
      [
        "[-k:",
        "]ĊĠĠĠĠresult"
      ],
      [
        "valueĠ*",
        "Ġk"
      ],
      [
        "æ",
        "ĭ¾"
      ],
      [
        "outputĠ=Ġ",
        "output[::-1"
      ],
      [
        "ãĤ",
        "į"
      ],
      [
        "å¥ĩæķ°",
        "ãģ®ãģ¿ãĤĴæ®ĭ"
      ],
      [
        "resultĠifĠ",
        "kĠ<=Ġvalue"
      ],
      [
        "xsĠifĠvalueĠ",
        "==Ġ0"
      ],
      [
        "Ĵ",
        "ãģ«"
      ],
      [
        "åģ¶æķ°",
        "ãģłãģĳãĤĴæĬ½åĩº"
      ],
      [
        "çµ¶å¯¾åĢ¤",
        "ãĤĴå"
      ],
      [
        "xsĠifĠ0Ġ==Ġ",
        "valueĠ%"
      ],
      [
        "¤",
        "äº"
      ],
      [
        "äº",
        "¤äº"
      ],
      [
        "éģ¸",
        "ãģ£ãģ¦ãĢģ"
      ],
      [
        "äº¤äº",
        "Ĵãģ«"
      ],
      [
        "kãĤĴä¸ĬåĽŀ",
        "ãĤĭåĢ¤"
      ],
      [
        "ãĤĴ2åĢį",
        "ãģ«ãģĻ"
      ],
      [
        "åĢ¤ãģ®",
        "éłĨåºıãĤĴéĻį"
      ],
      [
        "2åĢį",
        "ãģ«ãģĹãģ¦ãĢģ"
      ],
      [
        "ãģĻãģ¹",
        "ãģ¦"
      ],
      [
        "ãģĿãĤĮ",
        "ãĤī"
      ],
      [
        "returnĠ[",
        "xĠforĠxĠinĠ"
      ],
      [
        "+",
        "Ġk"
      ],
      [
        "valueĠ+",
        "Ġk"
      ],
      [
        "ãģ£",
        "ãģŁåĢ¤"
      ],
      [
        "å",
        "ł"
      ],
      [
        "ãĤĴ",
        "è£"
      ],
      [
        "ãĤĴè£",
        "ı"
      ],
      [
        "æ",
        "ĥ"
      ],
      [
        "ħ",
        "åł"
      ],
      [
        "ãĤĴè£ı",
        "è¿Ķ"
      ],
      [
        "æĥ",
        "ħåł"
      ],
      [
        "æĥħåł",
        "±"
      ],
      [
        "sorted(output",
        ")ĊĠĠĠĠ"
      ],
      [
        "kãĤĴä¸ĬåĽŀ",
        "ãģ£ãģŁåĢ¤"
      ],
      [
        "åıĸãĤĬãĢģåģ¶æķ°",
        "ãģłãģĳ"
      ],
      [
        "xsĠifĠ",
        "0Ġ!=ĠvalueĠ%Ġ2"
      ],
      [
        "resultĠ=Ġ",
        "result[::-1"
      ],
      [
        "ãĤģ",
        "ãĤĭsolveéĸ¢æķ°ãĤĴæĽ¸"
      ],
      [
        "xsĠifĠvalueĠ",
        "%ĠkĠ==Ġ0"
      ],
      [
        "åıĸãĤĬãĢģåĲĦæķ°",
        "åĢ¤"
      ],
      [
        "Ĭ",
        "ãģĪãĤĭåĢ¤"
      ],
      [
        "result",
        "]ĊĠĠĠĠoutput"
      ],
      [
        "xĠ%",
        "Ġk:ĊĠĠĠĠĠĠĠĠĠĠĠĠ"
      ],
      [
        "kãĤĴè¶",
        "ĬãģĪãĤĭåĢ¤"
      ],
      [
        "xsĠifĠvalueĠ",
        ">=Ġk"
      ],
      [
        "sorted(result",
        ")ĊĠĠĠĠ"
      ],
      [
        "[-k::",
        "]ĊĠĠĠĠoutput"
      ],
      [
        "xsĠifĠ",
        "valueĠ%Ġ2Ġ==Ġ0"
      ],
      [
        "0",
        "ãĤĪãĤĬ"
      ],
      [
        "[-k::",
        "]ĊĠĠĠĠresult"
      ],
      [
        "ãĤĴä¿Ŀ",
        "ãģ¤"
      ],
      [
        "ãģĭãĤīkãĤĴå¼",
        "ķãģĦ"
      ],
      [
        "ä¸¦ãģ³ãģĭãģĪ",
        "ãģ¦ãĢģ"
      ],
      [
        "outputĠ=Ġxs",
        "[::-1"
      ],
      [
        "+",
        "Ġk]ĊĠĠĠĠ#Ġ"
      ],
      [
        "[0::2",
        "]ĊĠĠĠĠresult"
      ],
      [
        "ķãģį",
        "ç®Ĺ"
      ],
      [
        "xĠ%Ġ2",
        ":ĊĠĠĠĠĠĠĠĠĠĠĠĠ"
      ],
      [
        "kãĤĴåĬł",
        "ç®Ĺ"
      ],
      [
        "#Ġk",
        "ãĤĪãĤĬå¤§ãģįãģĦ"
      ],
      [
        "ãĤ¼ãĥŃ",
        "ãģłãģĳãĤĴæ®ĭ"
      ],
      [
        "ãĤĴkãģ§",
        "æ"
      ],
      [
        "ãĤĴkãģ§æ",
        "¸ĽãĤī"
      ],
      [
        "[0::2",
        "]ĊĠĠĠĠoutput"
      ],
      [
        "ãĤĴéģ¸ãĤĵãģ§",
        "åĩº"
      ],
      [
        "ãĤĴæ®ĭãģĹ",
        "ãģŁå¾ĮãĢģ"
      ],
      [
        "éłĨåºıãĤĴéĢĨ",
        "ãģ«"
      ],
      [
        "ãĤĴåıĸå¾Ĺ",
        "ãģĻ"
      ],
      [
        "å",
        "¤ī"
      ],
      [
        "2åĢį",
        "ãģ«ãģĻ"
      ],
      [
        "xsĠifĠ",
        "valueĠ%Ġ2Ġ!=Ġ0"
      ],
      [
        "[::2",
        "]ĊĠĠĠĠoutput"
      ],
      [
        "#Ġk",
        "ãģ®åĢįæķ°"
      ],
      [
        "xs:ĊĠĠĠĠĠĠĠĠifĠ",
        "kĠ<=Ġ"
      ],
      [
        "output",
        "]ĊĠĠĠĠresult"
      ],
      [
        "æľĢå¾Į",
        "ãģ®kåĢĭ"
      ],
      [
        "resultĠ=Ġxs",
        "[::-1"
      ],
      [
        "æľĢå¾Į",
        "kåĢĭ"
      ],
      [
        "ãĤĴéģ¸",
        "åĪ¥"
      ],
      [
        "ãĤĴåıİéĽĨ",
        "ãģĹãģ¦ãĢģ"
      ],
      [
        "valueĠforĠvalueĠinĠ",
        "xs"
      ],
      [
        "ı",
        "ãĤĬ"
      ],
      [
        "ãĤ",
        "ıãĤĬ"
      ],
      [
        "å¥ĩæķ°",
        "ãĤĴæĬ½åĩº"
      ],
      [
        "çµĤ",
        "ãĤıãĤĬ"
      ],
      [
        "è¦ģç´ł",
        "ãĤĴæ®ĭãģĹãĢģ"
      ],
      [
        "*Ġ3ĠforĠvalueĠinĠ",
        "xs"
      ],
      [
        "valueĠ+",
        "Ġk]ĊĠĠĠĠ#Ġ"
      ],
      [
        "[",
        "xĠ"
      ],
      [
        "ãĤĴæĬ½åĩº",
        "ãģĹãģŁå¾ĮãĢģ"
      ],
      [
        "çµĤãĤıãĤĬ",
        "ãģĭãĤīkåĢĭ"
      ],
      [
        "#Ġk",
        "ä»¥ä¸ĭãģ®åĢ¤"
      ],
      [
        "å¤ī",
        "æıĽ"
      ],
      [
        "ãģłãģĳ",
        "ãĤĴãĥķãĤ£ãĥ«ãĤ¿"
      ],
      [
        "åıĸãĤĬãĢģ",
        "æŃ£ãģ®æķ°"
      ],
      [
        "ãģĹãģ¦ãĢģ",
        "kä»¥ä¸ĭãģ®åĢ¤"
      ],
      [
        "[::2",
        "]ĊĠĠĠĠresult"
      ],
      [
        "åıĸãĤĬãĢģåħĪéłŃ",
        "ãģ®kåĢĭ"
      ],
      [
        "łãģ«å¤īãģĪ",
        "ãģ¦ãĢģ"
      ],
      [
        "ãĤĴåĪĩãĤĬæĽ¿ãģĪ",
        "ãģ¦ãĢģ"
      ],
      [
        "ãĤĭĊĠĠĠĠ",
        "#Ġ"
      ],
      [
        "åĢ¤",
        "ãģĮ"
      ],
      [
        "ãģĹãģ¦ãĢģ",
        "kãģ®åĢįæķ°"
      ],
      [
        "output",
        "Ġ=Ġ[valueĠ"
      ],
      [
        "ãģ®ãģ¿",
        "ãĤĴä¿ĿæĮģãģĻ"
      ],
      [
        "ãģĿãģ®",
        "çµĲæŀľ"
      ],
      [
        "åĬ",
        "łãģ"
      ],
      [
        "result",
        "Ġ=Ġ[valueĠ"
      ],
      [
        "ãģĹãģ¦",
        "æ®ĭãģĹãĢģ"
      ],
      [
        "åĢ¤ãĤĴæľĢãĤĤ",
        "ä½"
      ],
      [
        "ãĤĴæ",
        "ĺĩ"
      ],
      [
        "#Ġk",
        "ãĤĪãĤĬå°ıãģķãģĦ"
      ],
      [
        "k",
        "åĢį"
      ],
      [
        "kä»¥ä¸Ĭãģ®",
        "ãĤĤãģ®"
      ],
      [
        "è¦ģç´łãĤĴ",
        "ä¿Ŀ"
      ],
      [
        "ãģłãģĳãĤĴæ®ĭãģĻĊĠĠĠĠ",
        "#Ġ"
      ],
      [
        "åıĸãĤĬãĢģ",
        "æķ°åĪĹãģ®"
      ],
      [
        "åĢ¤",
        "ãĤĴä½"
      ],
      [
        "ãģ®",
        "çµ¶å¯¾åĢ¤ãĤĴæ±ĤãĤģ"
      ],
      [
        "åĲĦ",
        "åħĥ"
      ],
      [
        "ãĥªãĥ³ãĤ°",
        "ãģĹãĢģ"
      ],
      [
        "ãģĿãĤĮãģŀãĤĮãģ®",
        "éłħçĽ®"
      ],
      [
        "ãĤĴçķĻ",
        "ãĤģãģ¦ãĢģ"
      ],
      [
        "ãĤ¼ãĥŃ",
        "ãģłãģĳãĤĴæĬ½åĩº"
      ],
      [
        "kä»¥ä¸Ĭãģ®",
        "éłħçĽ®"
      ],
      [
        "ãĤĴåĪĨãģĳ",
        "ãģ¦ãĢģ"
      ],
      [
        "åĢ¤ãĤĴéĻįéłĨãģ«",
        "æķ´"
      ],
      [
        "#Ġk",
        "ä»¥ä¸Ĭãģ®åĢ¤"
      ],
      [
        "xsĠifĠ",
        "0Ġ<Ġvalue"
      ],
      [
        "0ãĤĪãĤĬ",
        "å°ıãģķãģĦåĢ¤"
      ],
      [
        "x",
        "]ĊĠĠĠĠ#ĠkãĤĪãĤĬ"
      ],
      [
        "ãĤĤãģ®ãģ¸",
        "ä¸¦ãģ¹"
      ],
      [
        "¨",
        "ãģĹãģ¦ãĢģ"
      ],
      [
        "ãĤĴèŃĺåĪ¥",
        "ãģĹãģ¦ãĢģ"
      ],
      [
        "ãģķ",
        "ãģ«ãģĹãĢģ"
      ],
      [
        "éļĶçķªãģ§",
        "åĪĩãĤĬ"
      ],
      [
        "ãĤĭ",
        "éĸ¢æķ°ãĤĴå®Łè£"
      ],
      [
        "åĲĦè¦ģç´łãģ«",
        "kãĤĴä¹Ĺ"
      ],
      [
        "ãģĳ",
        "ãģ¦ãĢģ"
      ],
      [
        "xsĠifĠ0Ġ==Ġ",
        "value"
      ],
      [
        "è²łãģ®åĢ¤",
        "ãģ®ãģ¿ãĤĴæ®ĭ"
      ],
      [
        "ç",
        "Ķ"
      ],
      [
        "æľ",
        "ī"
      ],
      [
        "ãĤĴä¿Ŀ",
        "æľī"
      ],
      [
        "¡",
        "çĶ"
      ],
      [
        "İ",
        "¡çĶ"
      ],
      [
        "åıĸãĤĬãĢģ",
        "éļĶçķªãģ«"
      ],
      [
        "xsĠifĠ",
        "kĠ>=Ġvalue"
      ],
      [
        "output:Ġlist[int]",
        "Ġ=Ġ[-"
      ],
      [
        "è»¢",
        "ãģķãģĽãģ¦ãĢģ"
      ],
      [
        "ãģ®ãģ¿ãĤĴæ®ĭ",
        "ãģĹãģ¦ãĢģ"
      ],
      [
        "ãĤĴæ",
        "İ¡çĶ"
      ],
      [
        "value)ĠforĠvalueĠinĠ",
        "xs"
      ],
      [
        "ãģĿ",
        "ãģ®åĢ¤"
      ],
      [
        "ãĤ¼ãĥŃ",
        "ãģłãģĳ"
      ],
      [
        "xsĠifĠ",
        "0Ġ>Ġvalue"
      ],
      [
        "ãĤĴä¸īåĢį",
        "ãģĻ"
      ],
      [
        "åıĸãĤĬãĢģåĲĦæķ°",
        "ãģ®"
      ],
      [
        "ãģ®ãģ¿",
        "ãĤĴéģ¸ãĤĵãģ§ãĢģ"
      ],
      [
        "xsĠifĠ",
        "kĠ>Ġvalue"
      ],
      [
        "åģ¶æķ°",
        "ãģłãģĳãĤĴæ®ĭ"
      ],
      [
        "ķãģį",
        "ãĢģãģĿãģ®å¾Į"
      ],
      [
        "Ġ=Ġ[xĠ*Ġ3ĠforĠxĠinĠ",
        "xs"
      ],
      [
        "kä»¥ä¸Ĭãģ®åĢ¤",
        "ãĤĴæ®ĭ"
      ],
      [
        "ãĤģ",
        "ãģ®"
      ],
      [
        "Ġ=Ġ[-xĠforĠxĠinĠ",
        "xs"
      ],
      [
        "sorted(xs",
        ")ĊĠĠĠĠ#Ġ"
      ],
      [
        "ãģ¦",
        "è¨Īç®Ĺ"
      ],
      [
        "ãĤģ",
        "ãĤĭ"
      ],
      [
        "åĲĦæķ°ãģ®",
        "çµ¶å¯¾åĢ¤"
      ],
      [
        "-",
        "Ġk]ĊĠĠĠĠreturnĠoutputĊ"
      ],
      [
        "ãģŁå¾Įãģ«",
        "ãĢģ"
      ],
      [
        "result:Ġlist[int]",
        "Ġ=Ġ[-"
      ],
      [
        "xsĠifĠ",
        "kĠ<Ġvalue"
      ],
      [
        "ãĤĴå¼ķãģįç¶ļ",
        "ãģĦ"
      ],
      [
        "-",
        "Ġk]ĊĠĠĠĠreturnĠresultĊ"
      ],
      [
        ">",
        "Ġk]ĊĠĠĠĠoutput"
      ],
      [
        "ç",
        "ļ"
      ],
      [
        "å¾Į",
        "ãĢģ"
      ],
      [
        "çļ",
        "Ħ"
      ],
      [
        "å°",
        "ı"
      ],
      [
        "éłĨåºıãĤĴéĢĨ",
        "ãģ«ãģĹãĢģ"
      ],
      [
        "ãĤĴåĪĨ",
        "éĽ¢"
      ],
      [
        "çµ¶å¯¾åĢ¤ãĤĴè¨Īç®Ĺ",
        "ãģĻ"
      ],
      [
        "é",
        "ĢĨ"
      ],
      [
        "ãģĿãģ®ä¸ŃãģĭãĤī",
        "å¥ĩæķ°"
      ],
      [
        "Ġ=Ġ[xĠ*Ġ2ĠforĠxĠinĠ",
        "xs"
      ],
      [
        "ãģĻãģ¹ãģ¦ãģ®",
        "è¦ģç´łãģ«"
      ],
      [
        "åĢ¤ãĤĴå°",
        "ıãģķãģª"
      ],
      [
        "ãģ£",
        "ãģ¦ãģĭãĤīãĢģ"
      ],
      [
        "åĢ¤ãĤĴé«ĺ",
        "ãĤģãĤĭ"
      ],
      [
        "ķãģı",
        "solveéĸ¢æķ°ãĤĴå®Łè£"
      ],
      [
        "ãģ«",
        "å¤īæıĽ"
      ],
      [
        "*Ġ3",
        "]ĊĠĠĠĠreturnĠoutputĊ"
      ],
      [
        "ãģŁ",
        "ãĤģãģ®"
      ],
      [
        "ãĤĴéĢĨãģ«",
        "ãģķãģĽãģ¦ãĢģ"
      ],
      [
        "åĲĦè¦ģç´łãģ«",
        "kãĤĴè¶³"
      ],
      [
        "ãģ«kãĤĴä¹Ĺ",
        "ç®ĹãģĹãģ¦ãĢģ"
      ],
      [
        "åĲĦè¦ģç´",
        "ł"
      ],
      [
        "å¾Ĺ",
        "ãģĻ"
      ],
      [
        ">",
        "Ġk]ĊĠĠĠĠresult"
      ],
      [
        "åıĸãĤĬ",
        "åĩº"
      ],
      [
        "åĢ¤ãĤĴå¤§ãģįãģĦ",
        "éłĨãģ«"
      ],
      [
        "¹",
        "¶"
      ],
      [
        "å",
        "¹¶"
      ],
      [
        "ãĤĴæ®ĭãģĹ",
        "ãģªãģĮãĤī"
      ],
      [
        "çļĦ",
        "ãģ«"
      ],
      [
        "¤§",
        "å°ı"
      ],
      [
        "çµĤ",
        "çļĦãģ«"
      ],
      [
        "è¦ģç´łãĤĴ",
        "äºĮä¹Ĺ"
      ],
      [
        "ãĤĭ",
        "ãģĵãģ¨"
      ],
      [
        "ãĤĴéĢĨ",
        "è»¢"
      ],
      [
        "æľĢ",
        "çµĤçļĦãģ«"
      ],
      [
        "æŃ£è²łãĤĴ",
        "éĢĨ"
      ],
      [
        "åıĸãĤĬãĢģ",
        "è¦ģç´łãģ®"
      ],
      [
        "*",
        "Ġk]ĊĠĠĠĠreturnĠresultĊ"
      ],
      [
        "åĲĦéłħçĽ®",
        "ãģ«kãĤĴãģĭãģĳ"
      ],
      [
        "ãģį",
        "åĩºãģĹãģ¦ãĢģ"
      ],
      [
        "ãģ«",
        "ãģĹãģ¦ãģĭãĤīãĢģ"
      ],
      [
        "ãģķãģĽ",
        "ãĢģãģĿãģ®å¾Į"
      ],
      [
        "*",
        "Ġk]ĊĠĠĠĠreturnĠoutputĊ"
      ],
      [
        "ãģ¾",
        "ãģ¾"
      ],
      [
        "åĲĦåĢ¤",
        "ãģĭãĤī"
      ],
      [
        "ĭ",
        "ãģ¤"
      ],
      [
        "Ġ=Ġ[abs(x)ĠforĠxĠinĠ",
        "xs"
      ],
      [
        "ä¸¦ãģ³ãĤĴéĢĨ",
        "ãģ«ãģĹãĢģ"
      ],
      [
        "ħ",
        "ãģ®"
      ],
      [
        "ãĤĴ",
        "è¦"
      ],
      [
        "ãĤĴè¦",
        "ĭãģ¤"
      ],
      [
        "ãĥªãĤ¹ãĥĪ",
        "ãĤĴéĢĨ"
      ],
      [
        "ãģ«",
        "ä¸¦ãģ¹ãģ¦ãĢģ"
      ],
      [
        "¤",
        "ľ"
      ],
      [
        "ãĤĴæ",
        "¤ľ"
      ],
      [
        "outputĠifĠvalueĠ",
        ">Ġ0"
      ],
      [
        "-",
        "value]ĊĠĠĠĠ#Ġ"
      ],
      [
        "åıĸãĤĬãĢģ",
        "åīįkåĢĭ"
      ],
      [
        "*Ġ3",
        "]ĊĠĠĠĠreturnĠresultĊ"
      ],
      [
        "outputĠifĠxĠ",
        ">Ġ0"
      ],
      [
        "<",
        "Ġk]ĊĠĠĠĠresult"
      ],
      [
        "ãģĹãģ¦ãĢģ",
        "kæľªæºĢãģ®åĢ¤"
      ],
      [
        "ãĤĴè£ıè¿Ķ",
        "ãģĹãĢģ"
      ],
      [
        "ãĤĴæ",
        "Ń£"
      ],
      [
        "æĭ¾",
        "ãģ£ãģ¦ãĢģ"
      ],
      [
        "ãĤĴæŃ£",
        "è²"
      ],
      [
        "æķ°ãģ®",
        "ç¬¦åı·ãĤĴåıįè»¢"
      ],
      [
        "åĢ¤ãģ®ç¬¦åı·",
        "ãĤĴéĢĨè»¢"
      ],
      [
        "]ĊĠĠĠĠoutput",
        "Ġ=Ġ[valueĠ-"
      ],
      [
        "éĽĨ",
        "ãĤģãģ¦ãĢģ"
      ],
      [
        "solveéĸ¢æķ°",
        "ãĤĴä½ľæĪĲ"
      ],
      [
        "returnĠ[",
        "xĠ"
      ],
      [
        "æķ°ãģ®ç¬¦åı·",
        "ãĤĴæŃ£è²"
      ],
      [
        "resultĠifĠvalueĠ",
        ">Ġ0"
      ],
      [
        "ãģ»ãģĨãģĭãĤī",
        "ä¸¦ãģ¹"
      ],
      [
        "ãĤĭåĢ¤",
        "ãĤĴæ®ĭãģĹãģ¦ãĢģ"
      ],
      [
        "xsĠifĠ",
        "kĠ<=Ġvalue"
      ],
      [
        "ãĤĴ",
        "çµŀ"
      ],
      [
        "resultĠifĠxĠ",
        ">Ġ0"
      ],
      [
        "æ",
        "ĵ"
      ],
      [
        "į",
        "ä½"
      ],
      [
        "ľ",
        "ãĤĴè¡Į"
      ],
      [
        "ãģ®",
        "æŃ£è²"
      ],
      [
        "ç¬¦åı·",
        "ãģ®æŃ£è²"
      ],
      [
        "æĵ",
        "įä½"
      ],
      [
        "æĵįä½",
        "ľãĤĴè¡Į"
      ],
      [
        "æķ°ãģ®",
        "æŃ£è²łãĤĴåıįè»¢"
      ],
      [
        "Ŀ",
        "ãģ®"
      ],
      [
        "ãĤĴ",
        "åĢĭ"
      ],
      [
        "łãģ",
        "ĳ"
      ],
      [
        "åĪ¥",
        "ãģ«"
      ],
      [
        "ãģ¸",
        "ä¸¦ãģ¹ãģ¦ãĢģ"
      ],
      [
        "è¦ģç´łãģ",
        "łãģĳ"
      ],
      [
        "ãĤĴåĢĭ",
        "åĪ¥ãģ«"
      ],
      [
        "kä»¥ä¸Ĭãģ®",
        "æĥħåł±"
      ],
      [
        "åĢ¤ãĤĴå¹³æĸ¹",
        "ãģĹãģ¦ãĢģ"
      ],
      [
        "outputĠ=Ġ",
        "result[::-1"
      ],
      [
        "åĢ¤ãģ®",
        "ç¬¦åı·ãĤĴåıįè»¢"
      ],
      [
        "ãģĻãģ¹ãģ¦ãģ®æķ°",
        "åŃĹ"
      ],
      [
        "*Ġ2",
        "]ĊĠĠĠĠreturnĠoutputĊ"
      ],
      [
        "kãģ®åĢįæķ°",
        "ãģłãģĳãĤĴæ®ĭ"
      ],
      [
        "åıĸãĤĬãĢģ",
        "çµ¶å¯¾åĢ¤"
      ],
      [
        "]ĊĠĠĠĠresult",
        "Ġ=Ġ[valueĠ-"
      ],
      [
        "<",
        "Ġk]ĊĠĠĠĠoutput"
      ],
      [
        "ãģ¨",
        "ãĢģ"
      ],
      [
        "resultĠ=Ġ",
        "output[::-1"
      ],
      [
        "+",
        "Ġk]ĊĠĠĠĠreturnĠresultĊ"
      ],
      [
        "åĲĦéłħçĽ®",
        "ãģĭãĤīkãĤĴå¼"
      ],
      [
        "kãĤĴãģ²",
        "ãģĦãģ¦ãĢģ"
      ],
      [
        "*Ġ2",
        "]ĊĠĠĠĠreturnĠresultĊ"
      ],
      [
        "]ĊĠĠĠĠresult",
        "Ġ=Ġ[xĠ-"
      ],
      [
        "valueĠ*Ġ3",
        "]ĊĠĠĠĠ#Ġ"
      ],
      [
        "è²łãģ®æķ°",
        "ãģ®ãģ¿ãĤĴæ®ĭ"
      ],
      [
        "¦",
        "çĲĨ"
      ],
      [
        "ãĤĭ",
        "æĵįä½ľãĤĴè¡Į"
      ],
      [
        "ãĤĭ",
        "ãĢģ"
      ],
      [
        "[xĠforĠxĠinĠ",
        "xsĠifĠ"
      ],
      [
        "å°ıãģķãģĦ",
        "éłĨãģ«ä¸¦ãģ¹"
      ],
      [
        "ãĤĴéĻ¤åİ»",
        "ãģĹãĢģ"
      ],
      [
        "éłĨåºıãĤĴéĢĨ",
        "ãģ«ãģĻ"
      ],
      [
        "åıĸãĤĬãĢģ",
        "æķ°"
      ],
      [
        "]ĊĠĠĠĠresult",
        "Ġ=Ġ[-"
      ],
      [
        "]ĊĠĠĠĠoutput",
        "Ġ=Ġ[-"
      ],
      [
        "+",
        "Ġk]ĊĠĠĠĠreturnĠoutputĊ"
      ],
      [
        "è»¢",
        "ãģķãģĽ"
      ],
      [
        "kä»¥ä¸Ĭãģ®",
        "è¦ģç´ł"
      ],
      [
        "output",
        "[0:k"
      ],
      [
        "]ĊĠĠĠĠoutput",
        "Ġ=Ġ[abs("
      ],
      [
        "ķãģĦ",
        "ãģ¦ãģĭãĤīãĢģ"
      ],
      [
        "ãģĹãģ¦ãĢģ",
        "å¥ĩæķ°"
      ],
      [
        "åħĪ",
        "ç«¯kåĢĭ"
      ],
      [
        "]ĊĠĠĠĠoutput",
        "Ġ=Ġ[xĠ*"
      ],
      [
        "ãģĹãģ¦",
        "è¨Īç®Ĺ"
      ],
      [
        "]ĊĠĠĠĠoutput",
        "Ġ=Ġ[xĠ-"
      ],
      [
        "åĩ",
        "¦çĲĨ"
      ],
      [
        "ãģĻ",
        "ãģĵãģ¨"
      ],
      [
        "éĸ",
        "ĭ"
      ],
      [
        "ãģ®åĢ¤",
        "ãĤĴ3åĢį"
      ],
      [
        "*Ġ2",
        "]ĊĠĠĠĠ#Ġ"
      ],
      [
        "éļĶ",
        "éĸĭ"
      ],
      [
        "xs]ĊĠĠĠĠ#Ġ",
        "è²łãģ®"
      ],
      [
        "è¦ģç´łãĤĴ",
        "2åĢį"
      ],
      [
        ")[::-1",
        "]ĊĠĠĠĠ#Ġ"
      ],
      [
        "ãĤĤãģ®ãģĭãĤī",
        "å°ıãģķãģĦ"
      ],
      [
        "ãĤĴçŃĽéĢī",
        "ãģĹãĢģ"
      ],
      [
        "ãĤĴäºĮä¹Ĺ",
        "ãģĹãģ¦ãģĭãĤī"
      ],
      [
        "éļĶéĸĭ",
        "ãģĹãģ¦"
      ],
      [
        "åĬ",
        "Ľ"
      ],
      [
        "ãģĻ",
        "éĸ¢æķ°solveãĤĴå®Łè£"
      ],
      [
        "æ",
        "į"
      ],
      [
        "*Ġ",
        "x]ĊĠĠĠĠ#Ġ"
      ],
      [
        "İãģĦ",
        "éłĨãģ«ä¸¦ãģ¹"
      ],
      [
        "xs]ĊĠĠĠĠ#Ġ",
        "æŃ£ãģ®åĢ¤"
      ],
      [
        "ãĤĴéģ¸ãĤĵãģ§åĩº",
        "åĬĽ"
      ],
      [
        "ãģĭãĤī",
        "å°ıãģķãģĦåĢ¤"
      ],
      [
        "éłĨåºı",
        "ãĤĴåıį"
      ],
      [
        "è¦ģç´łãģ«",
        "kãĤĴä¹Ĺ"
      ],
      [
        "ãĤĴåıĸ",
        "æį"
      ],
      [
        "åıĸãĤĬãĢģ",
        "kãĤĴ"
      ],
      [
        "]ĊĠĠĠĠresult",
        "Ġ=Ġ[xĠ*"
      ],
      [
        "ç®Ĺ",
        "ãģĻ"
      ],
      [
        "åı",
        "į"
      ],
      [
        "åıİéĽĨ",
        "ãģĹãģ¦ãĢģ"
      ],
      [
        "åħ¨ãģ¦ãģ®",
        "æķ°ãģ®"
      ],
      [
        "ãĤį",
        "ãģĭãĤīkåĢĭãĤĴåıĸ"
      ],
      [
        "]ĊĠĠĠĠresult",
        "Ġ=Ġ[abs("
      ],
      [
        "]ĠifĠ",
        "xĠ"
      ],
      [
        "*Ġ3",
        "]ĊĠĠĠĠ#Ġ"
      ],
      [
        "ä¸īåĢį",
        "ãģĹãģ¦ãĢģ"
      ],
      [
        "Ĺ",
        "ãģ¦ãĢģ"
      ],
      [
        "result",
        "Ġ=Ġ[valueĠ*"
      ],
      [
        "2åĢįãģ«",
        "ãģĹãģ¦ãģĭãĤīãĢģ"
      ],
      [
        "xs]ĊĠĠĠĠ#Ġ",
        "åģ¶æķ°"
      ],
      [
        "ãĢ",
        "ħãģ®"
      ],
      [
        "åĢĭ",
        "ãĢħãģ®"
      ],
      [
        "kãĤĪãĤĬ",
        "å°"
      ],
      [
        "ãĥªãĤ¹ãĥĪãĤĴéĢĨ",
        "ãģķãģ«"
      ],
      [
        "valueĠ*Ġ2",
        "]ĊĠĠĠĠ#Ġ"
      ],
      [
        "è¦ģç´ł",
        "ãĤĴåıĸ"
      ],
      [
        "xs]ĊĠĠĠĠ#Ġ",
        "ãĤ¼ãĥŃ"
      ],
      [
        "ãĤĴæ®ĭãģĹ",
        "ç¶ļ"
      ],
      [
        "è²łãģ®æķ°",
        "ãģ«çµŀ"
      ],
      [
        "]ĠifĠ",
        "valueĠ"
      ],
      [
        "åĬłãģ",
        "Ĺãģ¦ãĢģ"
      ],
      [
        "¯",
        "İ"
      ],
      [
        "æ",
        "¯İ"
      ],
      [
        "result",
        "[0:k"
      ],
      [
        "è¦ģç´ł",
        "æ¯İ"
      ],
      [
        "]ĊĠĠĠĠresult",
        "Ġ=Ġ[xĠ+"
      ],
      [
        "valueĠ*Ġ",
        "value]ĊĠĠĠĠ#Ġ"
      ],
      [
        "ãģ«",
        "æ"
      ],
      [
        "ãģ®ãģ¿",
        "ãĤĴéģ¸ãĤĵãģ§"
      ],
      [
        "ãģŁ",
        "çµĲæŀľ"
      ],
      [
        "ãĤĴéģ¸ãģ³åĩº",
        "ãģĹãĢģ"
      ],
      [
        "]ĊĠĠĠĠresult",
        "Ġ=Ġ[valueĠ+"
      ],
      [
        "éģ¸",
        "ãģ¶solveéĸ¢æķ°ãĤĴæĽ¸"
      ],
      [
        "ãģ",
        "¬"
      ],
      [
        "åıĸãĤĬãĢģ",
        "å°ıãģķãģĦ"
      ],
      [
        "è¦ģç´ł",
        "åħ¨ãģ¦"
      ],
      [
        "kä»¥ä¸Ĭãģ§ãģĤãĤĭ",
        "ãĤĤãģ®"
      ],
      [
        "ãĤĴæ±ĤãĤģ",
        "ãĢģãģĿãģ®å¾Į"
      ],
      [
        "åĢ¤ãĤĴé«ĺ",
        "ãģĦ"
      ],
      [
        "¼",
        "ç´"
      ],
      [
        "ł",
        "¼ç´"
      ],
      [
        "output",
        "Ġ=Ġ[valueĠ*"
      ],
      [
        "ãģ¦",
        "ãģĦ"
      ],
      [
        "ł¼ç´",
        "į"
      ],
      [
        "æķ°",
        "ãģ«æ"
      ],
      [
        "]ĊĠĠĠĠoutput",
        "Ġ=Ġ[xĠ+"
      ],
      [
        "[:k",
        "]ĊĠĠĠĠ#ĠåĲĦè¦ģç´łãĤĴ"
      ],
      [
        "æķ°ãģ«æ",
        "ł¼ç´į"
      ],
      [
        "ãģĿãģ®",
        "ãģ¾ãģ¾"
      ]
    ]
  }
}